{
  "version": "1.0",
  "truncation": null,
  "padding": null,
  "added_tokens": [
    {
      "id": 0,
      "content": "<pad>",
      "single_word": false,
      "lstrip": false,
      "rstrip": false,
      "normalized": false,
      "special": true
    },
    {
      "id": 1,
      "content": "<unk>",
      "single_word": false,
      "lstrip": false,
      "rstrip": false,
      "normalized": false,
      "special": true
    },
    {
      "id": 2,
      "content": "<s>",
      "single_word": false,
      "lstrip": false,
      "rstrip": false,
      "normalized": false,
      "special": true
    },
    {
      "id": 3,
      "content": "</s>",
      "single_word": false,
      "lstrip": false,
      "rstrip": false,
      "normalized": false,
      "special": true
    }
  ],
  "normalizer": {
    "type": "Sequence",
    "normalizers": [
      {
        "type": "NFD"
      },
      {
        "type": "Lowercase"
      },
      {
        "type": "StripAccents"
      }
    ]
  },
  "pre_tokenizer": {
    "type": "Whitespace"
  },
  "post_processor": {
    "type": "TemplateProcessing",
    "single": [
      {
        "SpecialToken": {
          "id": "<s>",
          "type_id": 0
        }
      },
      {
        "Sequence": {
          "id": "A",
          "type_id": 0
        }
      },
      {
        "SpecialToken": {
          "id": "</s>",
          "type_id": 0
        }
      }
    ],
    "pair": [
      {
        "SpecialToken": {
          "id": "<s>",
          "type_id": 0
        }
      },
      {
        "Sequence": {
          "id": "A",
          "type_id": 0
        }
      },
      {
        "SpecialToken": {
          "id": "</s>",
          "type_id": 0
        }
      },
      {
        "SpecialToken": {
          "id": "</s>",
          "type_id": 0
        }
      },
      {
        "Sequence": {
          "id": "B",
          "type_id": 0
        }
      },
      {
        "SpecialToken": {
          "id": "</s>",
          "type_id": 0
        }
      }
    ],
    "special_tokens": {
      "</s>": {
        "id": "</s>",
        "ids": [
          3
        ],
        "tokens": [
          "</s>"
        ]
      },
      "<s>": {
        "id": "<s>",
        "ids": [
          2
        ],
        "tokens": [
          "<s>"
        ]
      }
    }
  },
  "decoder": null,
  "model": {
    "type": "BPE",
    "dropout": null,
    "unk_token": null,
    "continuing_subword_prefix": null,
    "end_of_word_suffix": null,
    "fuse_unk": false,
    "byte_fallback": false,
    "ignore_merges": false,
    "vocab": {
      "<pad>": 0,
      "<unk>": 1,
      "<s>": 2,
      "</s>": 3,
      "#": 4,
      "$": 5,
      "%": 6,
      "/": 7,
      "0": 8,
      "1": 9,
      "2": 10,
      "3": 11,
      "4": 12,
      "5": 13,
      "6": 14,
      "7": 15,
      "8": 16,
      "9": 17,
      "<": 18,
      ">": 19,
      "?": 20,
      "@": 21,
      "[": 22,
      "_": 23,
      "a": 24,
      "b": 25,
      "c": 26,
      "d": 27,
      "e": 28,
      "f": 29,
      "g": 30,
      "h": 31,
      "i": 32,
      "j": 33,
      "k": 34,
      "l": 35,
      "m": 36,
      "n": 37,
      "o": 38,
      "p": 39,
      "q": 40,
      "r": 41,
      "s": 42,
      "t": 43,
      "u": 44,
      "v": 45,
      "w": 46,
      "x": 47,
      "y": 48,
      "z": 49,
      "×": 50,
      "ஃ": 51,
      "அ": 52,
      "ஆ": 53,
      "இ": 54,
      "ஈ": 55,
      "உ": 56,
      "ஊ": 57,
      "எ": 58,
      "ஏ": 59,
      "ஐ": 60,
      "ஒ": 61,
      "ஓ": 62,
      "க": 63,
      "ங": 64,
      "ச": 65,
      "ஜ": 66,
      "ஞ": 67,
      "ட": 68,
      "ண": 69,
      "த": 70,
      "ந": 71,
      "ன": 72,
      "ப": 73,
      "ம": 74,
      "ய": 75,
      "ர": 76,
      "ற": 77,
      "ல": 78,
      "ள": 79,
      "ழ": 80,
      "வ": 81,
      "ஷ": 82,
      "ஸ": 83,
      "ஹ": 84,
      "௃": 85,
      "₹": 86,
      "கக": 87,
      "பப": 88,
      "வர": 89,
      "நத": 90,
      "தத": 91,
      "டட": 92,
      "கள": 93,
      "பர": 94,
      "றற": 95,
      "அவர": 96,
      "தர": 97,
      "கர": 98,
      "சய": 99,
      "ணட": 100,
      "பட": 101,
      "இர": 102,
      "என": 103,
      "மன": 104,
      "ஙக": 105,
      "ஒர": 106,
      "பபட": 107,
      "தன": 108,
      "ளள": 109,
      "கட": 110,
      "இநத": 111,
      "லம": 112,
      "ஙகள": 113,
      "வம": 114,
      "பத": 115,
      "சல": 116,
      "மறற": 117,
      "சர": 118,
      "மக": 119,
      "பல": 120,
      "வல": 121,
      "இத": 122,
      "வட": 123,
      "கற": 124,
      "யம": 125,
      "வள": 126,
      "யர": 127,
      "தல": 128,
      "நட": 129,
      "னம": 130,
      "உள": 131,
      "அத": 132,
      "மறறம": 133,
      "மர": 134,
      "மப": 135,
      "ககம": 136,
      "பற": 137,
      "மட": 138,
      "வத": 139,
      "வழ": 140,
      "கம": 141,
      "பபடட": 142,
      "னர": 143,
      "பன": 144,
      "கல": 145,
      "தட": 146,
      "பய": 147,
      "கழ": 148,
      "நன": 149,
      "ணம": 150,
      "சச": 151,
      "கத": 152,
      "ககள": 153,
      "நர": 154,
      "பபத": 155,
      "அன": 156,
      "மற": 157,
      "மத": 158,
      "கடட": 159,
      "லல": 160,
      "சம": 161,
      "உஙகள": 162,
      "ளளத": 163,
      "நஙகள": 164,
      "படட": 165,
      "அர": 166,
      "நற": 167,
      "இல": 168,
      "வக": 169,
      "டடம": 170,
      "இநதய": 171,
      "கணட": 172,
      "தவ": 173,
      "டன": 174,
      "மகவம": 175,
      "யல": 176,
      "வணட": 177,
      "ததர": 178,
      "னல": 179,
      "மககள": 180,
      "இபபத": 181,
      "அற": 182,
      "டம": 183,
      "கண": 184,
      "வலல": 185,
      "பண": 186,
      "படதத": 187,
      "சற": 188,
      "சன": 189,
      "தற": 190,
      "பறற": 191,
      "படம": 192,
      "வய": 193,
      "ககபபட": 194,
      "அட": 195,
      "ரநத": 196,
      "வறற": 197,
      "பககம": 198,
      "மலம": 199,
      "மழ": 200,
      "வளய": 201,
      "ளர": 202,
      "வன": 203,
      "வற": 204,
      "தக": 205,
      "ககபபடட": 206,
      "மல": 207,
      "யன": 208,
      "மதல": 209,
      "பயன": 210,
      "நல": 211,
      "அழ": 212,
      "யக": 213,
      "அவள": 214,
      "அரச": 215,
      "நதர": 216,
      "பக": 217,
      "லலத": 218,
      "சசய": 219,
      "உர": 220,
      "னற": 221,
      "ஆக": 222,
      "வழஙக": 223,
      "அலலத": 224,
      "உண": 225,
      "ஆனல": 226,
      "அம": 227,
      "சசர": 228,
      "ககவம": 229,
      "இரணட": 230,
      "தடர": 231,
      "நய": 232,
      "கறற": 233,
      "மனற": 234,
      "ஏற": 235,
      "ணண": 236,
      "பபர": 237,
      "வச": 238,
      "தரவ": 239,
      "கரம": 240,
      "பதத": 241,
      "சக": 242,
      "கழநத": 243,
      "உற": 244,
      "வமன": 245,
      "மண": 246,
      "வனம": 247,
      "சயத": 248,
      "நம": 249,
      "பனனர": 250,
      "பச": 251,
      "பயனபடதத": 252,
      "கபப": 253,
      "சநத": 254,
      "ஆணட": 255,
      "டர": 256,
      "எழ": 257,
      "கன": 258,
      "உயர": 259,
      "ககற": 260,
      "கய": 261,
      "ஆர": 262,
      "அநத": 263,
      "வடட": 264,
      "வரமப": 265,
      "ககக": 266,
      "ககட": 267,
      "பயர": 268,
      "தம": 269,
      "எதர": 270,
      "எட": 271,
      "ளம": 272,
      "அண": 273,
      "ததய": 274,
      "இற": 275,
      "ளளனர": 276,
      "உதவ": 277,
      "தடஙக": 278,
      "அவ": 279,
      "சயல": 280,
      "ளளர": 281,
      "ஜன": 282,
      "அதகர": 283,
      "உட": 284,
      "பறக": 285,
      "வரதத": 286,
      "ஙகம": 287,
      "களம": 288,
      "இட": 289,
      "இன": 290,
      "ககர": 291,
      "தவர": 292,
      "வடய": 293,
      "அள": 294,
      "தரம": 295,
      "ளளன": 296,
      "சத": 297,
      "அல": 298,
      "சவ": 299,
      "அனவர": 300,
      "நலம": 301,
      "ஒனற": 302,
      "வதம": 303,
      "அனதத": 304,
      "உல": 305,
      "யற": 306,
      "தனல": 307,
      "கரணம": 308,
      "உணவ": 309,
      "மரதத": 310,
      "பரத": 311,
      "ததம": 312,
      "சயய": 313,
      "வழகக": 314,
      "அதர": 315,
      "வண": 316,
      "பதல": 317,
      "எநத": 318,
      "மகம": 319,
      "பரம": 320,
      "பகத": 321,
      "ணடம": 322,
      "சமப": 323,
      "வஙக": 324,
      "பபடதத": 325,
      "இஙக": 326,
      "இதனல": 327,
      "தய": 328,
      "ஹர": 329,
      "பரட": 330,
      "வவ": 331,
      "வளயட": 332,
      "நரம": 333,
      "எண": 334,
      "வகக": 335,
      "வவர": 336,
      "தயர": 337,
      "பதய": 338,
      "மடடம": 339,
      "பளள": 340,
      "பரய": 341,
      "பகர": 342,
      "அனம": 343,
      "கலம": 344,
      "ககன": 345,
      "இடம": 346,
      "மகக": 347,
      "அனமத": 348,
      "கவல": 349,
      "நள": 350,
      "தழ": 351,
      "இண": 352,
      "அறவ": 353,
      "ஏன": 354,
      "மடட": 355,
      "அனற": 356,
      "அமர": 357,
      "வரல": 358,
      "நறவனம": 359,
      "யட": 360,
      "இரபப": 361,
      "எஸ": 362,
      "பழ": 363,
      "சறற": 364,
      "பலசர": 365,
      "ஙகர": 366,
      "வடகக": 367,
      "தணட": 368,
      "நபர": 369,
      "மதம": 370,
      "ததற": 371,
      "பபடம": 372,
      "ஸதன": 373,
      "இவ": 374,
      "மகழ": 375,
      "இரபபனம": 376,
      "லரநத": 377,
      "மம": 378,
      "சசயட": 379,
      "வமனம": 380,
      "பதவ": 381,
      "ஸட": 382,
      "எனவ": 383,
      "தகக": 384,
      "ககறர": 385,
      "கடமப": 386,
      "உலகம": 387,
      "ஒரவர": 388,
      "மனறம": 389,
      "எபபட": 390,
      "கடம": 391,
      "உரவக": 392,
      "பம": 393,
      "எல": 394,
      "மணடம": 395,
      "நடதத": 396,
      "அதன": 397,
      "நகர": 398,
      "எழத": 399,
      "தலவர": 400,
      "பள": 401,
      "வசர": 402,
      "ததன": 403,
      "மனப": 404,
      "தள": 405,
      "டஷ": 406,
      "கடச": 407,
      "களக": 408,
      "தணண": 409,
      "பபடடளளத": 410,
      "தணணர": 411,
      "சட": 412,
      "களவ": 413,
      "வளவ": 414,
      "இய": 415,
      "மனன": 416,
      "பலர": 417,
      "ஞச": 418,
      "மடவ": 419,
      "சமகம": 420,
      "பதகபப": 421,
      "வஷ": 422,
      "எம": 423,
      "தடடம": 424,
      "ஜர": 425,
      "லட": 426,
      "ஃப": 427,
      "மமப": 428,
      "கவட": 429,
      "மநலம": 430,
      "வரஸ": 431,
      "பரநத": 432,
      "சடட": 433,
      "உணம": 434,
      "ஏறபட": 435,
      "எணண": 436,
      "கணடபட": 437,
      "கரன": 438,
      "அரசஙகம": 439,
      "ஒவவர": 440,
      "மயற": 441,
      "தடரப": 442,
      "நகழ": 443,
      "வரவ": 444,
      "மககயம": 445,
      "யளர": 446,
      "வளர": 447,
      "நதமனறம": 448,
      "களடன": 449,
      "மயறச": 450,
      "தனம": 451,
      "சசன": 452,
      "பரதமர": 453,
      "ரஜ": 454,
      "பரள": 455,
      "களயம": 456,
      "தடபப": 457,
      "ஆட": 458,
      "ரம": 459,
      "உடல": 460,
      "பஙக": 461,
      "பரவ": 462,
      "சயம": 463,
      "உததர": 464,
      "சகக": 465,
      "நனக": 466,
      "கவன": 467,
      "பனற": 468,
      "இனனம": 469,
      "எனனம": 470,
      "பகக": 471,
      "தஙக": 472,
      "யவலல": 473,
      "நறதத": 474,
      "எவ": 475,
      "நண": 476,
      "யளளத": 477,
      "தலல": 478,
      "அமரகக": 479,
      "அதக": 480,
      "சறய": 481,
      "அஙக": 482,
      "கவ": 483,
      "பலவற": 484,
      "கறர": 485,
      "தவற": 486,
      "ஆதர": 487,
      "வடவம": 488,
      "சமபவம": 489,
      "வதற": 490,
      "கடடபபட": 491,
      "ககபபடடளளத": 492,
      "ரபய": 493,
      "கரதத": 494,
      "ககபபடம": 495,
      "ததளளத": 496,
      "சகர": 497,
      "சதன": 498,
      "ரஷ": 499,
      "பரசசன": 500,
      "ஆசர": 501,
      "இதனலதன": 502,
      "அடய": 503,
      "நமப": 504,
      "நகரம": 505,
      "மனத": 506,
      "மஸ": 507,
      "வஷயம": 508,
      "கடடம": 509,
      "பணம": 510,
      "நடபற": 511,
      "அமசசர": 512,
      "ஆல": 513,
      "சயலபட": 514,
      "தடபபச": 515,
      "ரயல": 516,
      "அறகக": 517,
      "பரபப": 518,
      "இழ": 519,
      "மரததவமன": 520,
      "சமர": 521,
      "மரநத": 522,
      "பயண": 523,
      "இறத": 524,
      "மணவர": 525,
      "வகம": 526,
      "எபபத": 527,
      "பகஸதன": 528,
      "வசரண": 529,
      "சபபட": 530,
      "நனற": 531,
      "கணடற": 532,
      "மழவதம": 533,
      "பஜ": 534,
      "எத": 535,
      "வடடம": 536,
      "வரம": 537,
      "வலஙக": 538,
      "ஹரஷ": 539,
      "19": 540,
      "றச": 541,
      "ககவலல": 542,
      "வரர": 543,
      "சதத": 544,
      "தபப": 545,
      "பபம": 546,
      "சடடம": 547,
      "சலதத": 548,
      "ஆசரயர": 549,
      "உணர": 550,
      "ஆண": 551,
      "ககய": 552,
      "நரபப": 553,
      "தரமப": 554,
      "நறம": 555,
      "ஊட": 556,
      "ஒபப": 557,
      "பனபறற": 558,
      "அடயளம": 559,
      "ஞர": 560,
      "பஸ": 561,
      "ழம": 562,
      "வயத": 563,
      "வடயவ": 564,
      "தடட": 565,
      "சயயபபடட": 566,
      "பசச": 567,
      "தழல": 568,
      "யவ": 569,
      "வகபப": 570,
      "எலல": 571,
      "ஏறபடதத": 572,
      "உடன": 573,
      "மததய": 574,
      "கடமபம": 575,
      "மஹரஷ": 576,
      "அனபப": 577,
      "தண": 578,
      "அழககபபட": 579,
      "உறத": 580,
      "மஹரஷடர": 581,
      "ஊழ": 582,
      "டடர": 583,
      "மதத": 584,
      "அதரசசயட": 585,
      "ஆசசர": 586,
      "பலம": 587,
      "அடட": 588,
      "தரநத": 589,
      "அளவ": 590,
      "மனம": 591,
      "உறபப": 592,
      "கதத": 593,
      "ரன": 594,
      "லய": 595,
      "தகவல": 596,
      "எனன": 597,
      "அமத": 598,
      "சரம": 599,
      "மறறர": 600,
      "யறற": 601,
      "பதம": 602,
      "மரததவர": 603,
      "கடநத": 604,
      "மகன": 605,
      "மகழசசய": 606,
      "வடன": 607,
      "வதக": 608,
      "அழக": 609,
      "பரதத": 610,
      "ஊடகம": 611,
      "வரத": 612,
      "சங": 613,
      "தரதல": 614,
      "நடவடகக": 615,
      "ரஷய": 616,
      "அடதத": 617,
      "ஆவர": 618,
      "ககலம": 619,
      "நணபர": 620,
      "கப": 621,
      "சதர": 622,
      "மனவ": 623,
      "லர": 624,
      "நடவர": 625,
      "இனற": 626,
      "பயறச": 627,
      "பநத": 628,
      "எள": 629,
      "கஷ": 630,
      "எவவளவ": 631,
      "உறபபனர": 632,
      "சப": 633,
      "ஜய": 634,
      "எணணகக": 635,
      "மனதர": 636,
      "வளள": 637,
      "யரநத": 638,
      "அனப": 639,
      "ஊழயர": 640,
      "எங": 641,
      "நழ": 642,
      "ததகய": 643,
      "நறய": 644,
      "கரபப": 645,
      "கணடரநத": 646,
      "தறற": 647,
      "பரவய": 648,
      "பயணம": 649,
      "டலல": 650,
      "ரண": 651,
      "வநத": 652,
      "வரலக": 653,
      "தலம": 654,
      "கறபபட": 655,
      "அவறற": 656,
      "ஓட": 657,
      "கமர": 658,
      "கததர": 659,
      "ஹல": 660,
      "தரமணம": 661,
      "வதத": 662,
      "கனவ": 663,
      "எபபதம": 664,
      "கவனம": 665,
      "நதரம": 666,
      "அதரசசய": 667,
      "கநத": 668,
      "ககண": 669,
      "ததல": 670,
      "கணடறய": 671,
      "பபளர": 672,
      "கடனம": 673,
      "மகழசசயட": 674,
      "ஙகளம": 675,
      "வளயடட": 676,
      "நகழசச": 677,
      "உளள": 678,
      "சழ": 679,
      "பததர": 680,
      "சலர": 681,
      "சசம": 682,
      "அனமதககபபட": 683,
      "கஸ": 684,
      "கஙகர": 685,
      "வததர": 686,
      "களககம": 687,
      "கடன": 688,
      "கயம": 689,
      "பததகம": 690,
      "பதலள": 691,
      "எர": 692,
      "வளகக": 693,
      "உரம": 694,
      "நடட": 695,
      "நமத": 696,
      "களள": 697,
      "பரடட": 698,
      "படன": 699,
      "கணல": 700,
      "அபப": 701,
      "சததம": 702,
      "நகக": 703,
      "எழதத": 704,
      "கவலதற": 705,
      "தறபத": 706,
      "இறநத": 707,
      "மவடடம": 708,
      "மடயவலல": 709,
      "தரபப": 710,
      "வளயற": 711,
      "கவட19": 712,
      "பஜக": 713,
      "சஙக": 714,
      "ஜம": 715,
      "ரக": 716,
      "கறபப": 717,
      "மதலவர": 718,
      "கறறம": 719,
      "ளவ": 720,
      "எனற": 721,
      "பதக": 722,
      "கலவ": 723,
      "மய": 724,
      "ஏர": 725,
      "கஙகரஸ": 726,
      "00": 727,
      "கஙக": 728,
      "நதபத": 729,
      "நதளளத": 730,
      "பபடடளளன": 731,
      "வபதத": 732,
      "வவசய": 733,
      "லடசம": 734,
      "கயல": 735,
      "மச": 736,
      "பறவ": 737,
      "ஜட": 738,
      "நளம": 739,
      "நணடம": 740,
      "ஷட": 741,
      "மரம": 742,
      "அமபப": 743,
      "கரமம": 744,
      "இடய": 745,
      "சஙகம": 746,
      "பதபப": 747,
      "பனவர": 748,
      "கவம": 749,
      "றகக": 750,
      "சனற": 751,
      "நலயம": 752,
      "சகதர": 753,
      "டவடட": 754,
      "ஏறற": 755,
      "யடன": 756,
      "எஙகள": 757,
      "பதககபபடட": 758,
      "மறறலம": 759,
      "கழவ": 760,
      "மறபடட": 761,
      "அததய": 762,
      "ஓடட": 763,
      "கஜர": 764,
      "படடயல": 765,
      "களத": 766,
      "பயஙகர": 767,
      "அரக": 768,
      "கணம": 769,
      "ததளளர": 770,
      "பரல": 771,
      "பறபப": 772,
      "கடமபதத": 773,
      "ஆஸ": 774,
      "பஙகள": 775,
      "சலல": 776,
      "அததகய": 777,
      "இரவ": 778,
      "நடகக": 779,
      "சறநத": 780,
      "சகசச": 781,
      "அபபட": 782,
      "எததன": 783,
      "பறம": 784,
      "பறறர": 785,
      "உகரன": 786,
      "நலல": 787,
      "வலம": 788,
      "ககடட": 789,
      "வரபடம": 790,
      "கடல": 791,
      "மகஷ": 792,
      "ஒரபதம": 793,
      "பபடவலல": 794,
      "தனன": 795,
      "அடடவண": 796,
      "தரநதட": 797,
      "டஸ": 798,
      "பவர": 799,
      "பதமன": 800,
      "ஐநத": 801,
      "யத": 802,
      "மலல": 803,
      "வணண": 804,
      "யலரநத": 805,
      "களர": 806,
      "தரணம": 807,
      "கடயர": 808,
      "பபதக": 809,
      "டவடடர": 810,
      "ஊகக": 811,
      "நறற": 812,
      "ரதத": 813,
      "சறம": 814,
      "ஆபதத": 815,
      "மததம": 816,
      "சறபப": 817,
      "மழம": 818,
      "வதறகக": 819,
      "மனனர": 820,
      "நயதத": 821,
      "சசல": 822,
      "மடம": 823,
      "சதவதம": 824,
      "பஙகல": 825,
      "பககவரதத": 826,
      "ததலரநத": 827,
      "பபன": 828,
      "பரச": 829,
      "எஙக": 830,
      "வசம": 831,
      "சயலம": 832,
      "கடதம": 833,
      "ககபபடடளளன": 834,
      "நயள": 835,
      "நயததறற": 836,
      "இள": 837,
      "கபபறற": 838,
      "னஸ": 839,
      "எலம": 840,
      "தச": 841,
      "ஆற": 842,
      "கசச": 843,
      "ரல": 844,
      "பரடடம": 845,
      "மறறவர": 846,
      "யளளனர": 847,
      "கரககட": 848,
      "பனன": 849,
      "ககபபடடத": 850,
      "தவரம": 851,
      "ஆஸதர": 852,
      "உசசம": 853,
      "சததர": 854,
      "சநதர": 855,
      "சகதரம": 856,
      "சவபப": 857,
      "யரநதத": 858,
      "சவர": 859,
      "களதர": 860,
      "நககம": 861,
      "மணட": 862,
      "களககன": 863,
      "வலத": 864,
      "நடகர": 865,
      "வணகம": 866,
      "20": 867,
      "ஒள": 868,
      "யமன": 869,
      "வககவம": 870,
      "பரபலம": 871,
      "கரகக": 872,
      "கடமபததனர": 873,
      "டய": 874,
      "மசம": 875,
      "சரவத": 876,
      "கடடடம": 877,
      "படடதல": 878,
      "பறறய": 879,
      "உறவ": 880,
      "ஜல": 881,
      "மள": 882,
      "லநத": 883,
      "நறவ": 884,
      "மகழசசயக": 885,
      "உதரணம": 886,
      "டமரநத": 887,
      "வபப": 888,
      "வதலல": 889,
      "பரக": 890,
      "பரததர": 891,
      "படல": 892,
      "பலவ": 893,
      "அனவரககம": 894,
      "பனறவ": 895,
      "ஆபததன": 896,
      "அகறற": 897,
      "ஏபரல": 898,
      "டயக": 899,
      "டடல": 900,
      "கடர": 901,
      "மறகள": 902,
      "கணடர": 903,
      "அடபபட": 904,
      "இயகக": 905,
      "கணடறயவம": 906,
      "சரவதசம": 907,
      "தஷ": 908,
      "பலஸ": 909,
      "பணயறற": 910,
      "ரணவம": 911,
      "அததயயம": 912,
      "ஆள": 913,
      "ஈட": 914,
      "அமல": 915,
      "ககடச": 916,
      "பதலக": 917,
      "ஏனனல": 918,
      "தசயம": 919,
      "மயம": 920,
      "சணட": 921,
      "ககதம": 922,
      "இதபல": 923,
      "இதபனற": 924,
      "வணடயரநதத": 925,
      "எதரக": 926,
      "வககயம": 927,
      "கரனவரஸ": 928,
      "சககல": 929,
      "இச": 930,
      "ஒடட": 931,
      "ணர": 932,
      "வவத": 933,
      "ககளள": 934,
      "ககழம": 935,
      "நதளளனர": 936,
      "களல": 937,
      "ஙகளயம": 938,
      "வகனம": 939,
      "எதரபப": 940,
      "ஆய": 941,
      "கவத": 942,
      "தகத": 943,
      "மதர": 944,
      "ததடன": 945,
      "அமசச": 946,
      "ஏழ": 947,
      "பணட": 948,
      "களதவர": 949,
      "மரச": 950,
      "வறறடம": 951,
      "ககறத": 952,
      "மடடர": 953,
      "கமப": 954,
      "பபடடன": 955,
      "மறக": 956,
      "உயரழ": 957,
      "சயயபபடடளளத": 958,
      "சமபம": 959,
      "ஏத": 960,
      "களககக": 961,
      "கணடளளத": 962,
      "தறம": 963,
      "கவலபபட": 964,
      "வதறகன": 965,
      "ரச": 966,
      "நதய": 967,
      "வசததர": 968,
      "டவட": 969,
      "படபப": 970,
      "ககறரகள": 971,
      "உததரபபர": 972,
      "உடனடயக": 973,
      "சயலமற": 974,
      "அமசசகம": 975,
      "உழ": 976,
      "சஷ": 977,
      "பஞச": 978,
      "நதரநத": 979,
      "சலவ": 980,
      "கடடணம": 981,
      "அறபதமன": 982,
      "தயம": 983,
      "வயல": 984,
      "சயளர": 985,
      "சறவன": 986,
      "வடடற": 987,
      "பரதசம": 988,
      "ககணட": 989,
      "கரட": 990,
      "வளம": 991,
      "பபடடர": 992,
      "கயகற": 993,
      "ககரம": 994,
      "ஈர": 995,
      "எஃப": 996,
      "ஞசல": 997,
      "யயம": 998,
      "ததளளனர": 999,
      "கரண": 1000,
      "படய": 1001,
      "ககபபடடன": 1002,
      "அணக": 1003,
      "ககரவர": 1004,
      "ஒனறக": 1005,
      "ஒரவரககரவர": 1006,
      "கதர": 1007,
      "ரய": 1008,
      "வகய": 1009,
      "தறகக": 1010,
      "ஏறகனவ": 1011,
      "அலக": 1012,
      "இயககம": 1013,
      "எனறம": 1014,
      "எச": 1015,
      "மயல": 1016,
      "பரபல": 1017,
      "பரதம": 1018,
      "ஏறபடட": 1019,
      "வரலகய": 1020,
      "சகத": 1021,
      "ரப": 1022,
      "ததறகக": 1023,
      "உளளட": 1024,
      "ஜமமகஷ": 1025,
      "பயஙகரவத": 1026,
      "ஜமமகஷமர": 1027,
      "ஸடர": 1028,
      "வரச": 1029,
      "வயதன": 1030,
      "ககடய": 1031,
      "இறதயக": 1032,
      "நரபபவ": 1033,
      "இஸ": 1034,
      "ககரர": 1035,
      "மககக": 1036,
      "ககழ": 1037,
      "பலன": 1038,
      "மதபப": 1039,
      "தபத": 1040,
      "தசம": 1041,
      "ததயம": 1042,
      "பரன": 1043,
      "தரயம": 1044,
      "கறவ": 1045,
      "நடபம": 1046,
      "வறபன": 1047,
      "அமம": 1048,
      "ஆரய": 1049,
      "பபள": 1050,
      "பதககம": 1051,
      "சரயன": 1052,
      "தறகல": 1053,
      "தரவததளளத": 1054,
      "மரததவம": 1055,
      "தககதல": 1056,
      "ஆம": 1057,
      "உளளர": 1058,
      "டல": 1059,
      "தப": 1060,
      "வளபபடதத": 1061,
      "கழபப": 1062,
      "நரமப": 1063,
      "கணகண": 1064,
      "ஊககவ": 1065,
      "எதய": 1066,
      "கடற": 1067,
      "தலபப": 1068,
      "வழதத": 1069,
      "தறன": 1070,
      "உறபதத": 1071,
      "எசசர": 1072,
      "பளர": 1073,
      "யபபட": 1074,
      "வககள": 1075,
      "களன": 1076,
      "பரகக": 1077,
      "கடபர": 1078,
      "வடம": 1079,
      "தலவய": 1080,
      "பகன": 1081,
      "பயரட": 1082,
      "ஜனவர": 1083,
      "கபமட": 1084,
      "ககணககன": 1085,
      "பதபபபப": 1086,
      "எலமப": 1087,
      "இவர": 1088,
      "சமக": 1089,
      "சகம": 1090,
      "டச": 1091,
      "நமடம": 1092,
      "பரஸ": 1093,
      "கரநட": 1094,
      "அரசயல": 1095,
      "கணவர": 1096,
      "வழஙகபபடம": 1097,
      "கபபட": 1098,
      "யளளர": 1099,
      "வததய": 1100,
      "ததலம": 1101,
      "பரமர": 1102,
      "படகக": 1103,
      "நரவகம": 1104,
      "மகககவசம": 1105,
      "ஏனல": 1106,
      "கதல": 1107,
      "டவ": 1108,
      "மகள": 1109,
      "களலரநத": 1110,
      "மகநத": 1111,
      "இதவர": 1112,
      "தவபபட": 1113,
      "உயரம": 1114,
      "வவரம": 1115,
      "பரளதரம": 1116,
      "கறரகள": 1117,
      "நனறக": 1118,
      "இயற": 1119,
      "பதர": 1120,
      "களலம": 1121,
      "கணகக": 1122,
      "கணடட": 1123,
      "ஆணடகளக": 1124,
      "தழத": 1125,
      "ஷடவச": 1126,
      "வரநத": 1127,
      "மரஙகள": 1128,
      "வழபப": 1129,
      "சனன": 1130,
      "உறசக": 1131,
      "ஆரவம": 1132,
      "ஆஸதரலய": 1133,
      "உத": 1134,
      "நயக": 1135,
      "பரககவம": 1136,
      "கரல": 1137,
      "இரபபதக": 1138,
      "மனசரம": 1139,
      "நனககறர": 1140,
      "வளயறற": 1141,
      "சகதரர": 1142,
      "அகடபர": 1143,
      "ஒல": 1144,
      "டசம": 1145,
      "யவர": 1146,
      "யசன": 1147,
      "தரமண": 1148,
      "இதற": 1149,
      "வழகடட": 1150,
      "மதலம": 1151,
      "ககபபடடளள": 1152,
      "எதரன": 1153,
      "தபபகக": 1154,
      "தழலநடபம": 1155,
      "வணணபப": 1156,
      "அசச": 1157,
      "ழதத": 1158,
      "வஸ": 1159,
      "ஙகல": 1160,
      "கடமககள": 1161,
      "வனற": 1162,
      "வறபட": 1163,
      "பபரவர": 1164,
      "சயயபபடடத": 1165,
      "சபப": 1166,
      "தஙகம": 1167,
      "யகம": 1168,
      "ததத": 1169,
      "தரபபடம": 1170,
      "கரத": 1171,
      "மனவர": 1172,
      "பபடடத": 1173,
      "கதம": 1174,
      "நரமற": 1175,
      "சனடம": 1176,
      "சசரம": 1177,
      "தயவ": 1178,
      "சறறல": 1179,
      "கயமட": 1180,
      "ஆன": 1181,
      "மசத": 1182,
      "மஞச": 1183,
      "சயதத": 1184,
      "மனதன": 1185,
      "ஙகளலம": 1186,
      "வடபப": 1187,
      "உஙகளககக": 1188,
      "தலவயட": 1189,
      "இயறக": 1190,
      "இதறகட": 1191,
      "ஆயர": 1192,
      "ஒபபட": 1193,
      "டலர": 1194,
      "நவம": 1195,
      "யளள": 1196,
      "நதம": 1197,
      "பலல": 1198,
      "பலகல": 1199,
      "அறகற": 1200,
      "கபபல": 1201,
      "வரமபவலல": 1202,
      "பழய": 1203,
      "ததறன": 1204,
      "சனடமடடர": 1205,
      "பலகலககழ": 1206,
      "ஆபகன": 1207,
      "எற": 1208,
      "சவரஸ": 1209,
      "நயம": 1210,
      "வசல": 1211,
      "ஷன": 1212,
      "பரமப": 1213,
      "மனர": 1214,
      "கணணட": 1215,
      "ஆகஸட": 1216,
      "உததரவட": 1217,
      "ஆதரவள": 1218,
      "பலகலககழகம": 1219,
      "இபபட": 1220,
      "ஏதன": 1221,
      "ரசகர": 1222,
      "தலககடச": 1223,
      "கலலர": 1224,
      "சனவ": 1225,
      "அதரசச": 1226,
      "தயரபப": 1227,
      "ஷடவசமக": 1228,
      "தயவசயத": 1229,
      "ஓடடம": 1230,
      "தரதர": 1231,
      "கரவ": 1232,
      "வலரநத": 1233,
      "நறவறற": 1234,
      "அழபப": 1235,
      "எடதத": 1236,
      "தணடன": 1237,
      "இவவளவ": 1238,
      "அனபவ": 1239,
      "சவல": 1240,
      "தமழ": 1241,
      "தககர": 1242,
      "றறம": 1243,
      "தரயவலல": 1244,
      "படபபட": 1245,
      "இநதயர": 1246,
      "அதவத": 1247,
      "மரணம": 1248,
      "இலஙக": 1249,
      "ஆரககய": 1250,
      "ஓடடநர": 1251,
      "தககம": 1252,
      "பபதறகக": 1253,
      "சமயல": 1254,
      "வயபப": 1255,
      "இடத": 1256,
      "அலவல": 1257,
      "உலகஙக": 1258,
      "இஙகலநத": 1259,
      "ஆலசன": 1260,
      "உததரபபரதசம": 1261,
      "நவமபர": 1262,
      "உலகஙகலம": 1263,
      "ஊர": 1264,
      "ஒதத": 1265,
      "கபர": 1266,
      "ஜமன": 1267,
      "ஞசம": 1268,
      "டக": 1269,
      "யச": 1270,
      "ஹன": 1271,
      "படக": 1272,
      "இரண": 1273,
      "வளபபட": 1274,
      "நகழவ": 1275,
      "வளரசச": 1276,
      "ஆடச": 1277,
      "அனபவம": 1278,
      "டசமபர": 1279,
      "பனம": 1280,
      "வரக": 1281,
      "தரயற": 1282,
      "இரநத": 1283,
      "கடககபபடடளள": 1284,
      "வடவ": 1285,
      "நடனம": 1286,
      "அதகம": 1287,
      "மதவ": 1288,
      "சயலளர": 1289,
      "உததரவ": 1290,
      "மதலமசசர": 1291,
      "மஞசள": 1292,
      "ஆதரம": 1293,
      "ஷர": 1294,
      "நரவக": 1295,
      "சறத": 1296,
      "கறறபபட": 1297,
      "கயழதத": 1298,
      "நடவரச": 1299,
      "கஜரதத": 1300,
      "சபடம": 1301,
      "தநத": 1302,
      "றக": 1303,
      "ஸப": 1304,
      "பபகத": 1305,
      "ணடன": 1306,
      "ஙகளடன": 1307,
      "சரவ": 1308,
      "நறவன": 1309,
      "ககபபடவலல": 1310,
      "மலர": 1311,
      "உரவகக": 1312,
      "எதரகள": 1313,
      "மனனள": 1314,
      "ரஜஸதன": 1315,
      "ஆடசயளர": 1316,
      "வகயனம": 1317,
      "வரட": 1318,
      "கலல": 1319,
      "தகபப": 1320,
      "பபரவ": 1321,
      "ஆசசரயம": 1322,
      "பரவயளர": 1323,
      "பஙகளர": 1324,
      "சபடமபர": 1325,
      "அபபத": 1326,
      "ஆதரவ": 1327,
      "எடட": 1328,
      "ஸர": 1329,
      "மறறததறன": 1330,
      "நடநத": 1331,
      "வசத": 1332,
      "ஜனதபத": 1333,
      "அறவபப": 1334,
      "கவனய": 1335,
      "நமபகக": 1336,
      "பசசஐ": 1337,
      "ஆசசரய": 1338,
      "ஆபகனஸதன": 1339,
      "இவறற": 1340,
      "கபம": 1341,
      "சமன": 1342,
      "மததர": 1343,
      "தனபபடட": 1344,
      "கடடதத": 1345,
      "மழக": 1346,
      "வனமற": 1347,
      "வணககம": 1348,
      "பளஸட": 1349,
      "மயறசககவம": 1350,
      "பரபபளவ": 1351,
      "அபரதம": 1352,
      "யலம": 1353,
      "ணடர": 1354,
      "கடதத": 1355,
      "வடஸ": 1356,
      "தலபச": 1357,
      "நடள": 1358,
      "வதநத": 1359,
      "இனஸட": 1360,
      "வடககயக": 1361,
      "மதமளள": 1362,
      "நணயம": 1363,
      "ஆளநர": 1364,
      "இரணவம": 1365,
      "ஏட": 1366,
      "சனல": 1367,
      "றகன": 1368,
      "பலயல": 1369,
      "தலரநத": 1370,
      "அதபர": 1371,
      "பறககண": 1372,
      "மடநத": 1373,
      "வழககற": 1374,
      "தறக": 1375,
      "பததசல": 1376,
      "சயயபபட": 1377,
      "தழலளர": 1378,
      "வரலகயளளத": 1379,
      "வழகடடதல": 1380,
      "பகம": 1381,
      "யலல": 1382,
      "வசச": 1383,
      "தனயர": 1384,
      "மகபபர": 1385,
      "வலக": 1386,
      "நடக": 1387,
      "கறறசச": 1388,
      "இணபப": 1389,
      "மலலயன": 1390,
      "கடயரச": 1391,
      "அமலபடதத": 1392,
      "ஏதவத": 1393,
      "அலவலகம": 1394,
      "வழககறஞர": 1395,
      "ஐப": 1396,
      "ஜபபன": 1397,
      "டககட": 1398,
      "யனர": 1399,
      "ழல": 1400,
      "ஙகலம": 1401,
      "கறத": 1402,
      "அதகரம": 1403,
      "கடடபபடடளளத": 1404,
      "அடஙக": 1405,
      "வறக": 1406,
      "பபரள": 1407,
      "பபரகக": 1408,
      "நமகக": 1409,
      "வடககயளர": 1410,
      "மஸலம": 1411,
      "கணடரநதத": 1412,
      "சஷநத": 1413,
      "நடளமனறம": 1414,
      "co": 1415,
      "ஜத": 1416,
      "வபபம": 1417,
      "வநயக": 1418,
      "பரநதர": 1419,
      "சரயம": 1420,
      "கறப": 1421,
      "தலபன": 1422,
      "கலட": 1423,
      "கலய": 1424,
      "உடபட": 1425,
      "பழஙக": 1426,
      "மனனதக": 1427,
      "தவறன": 1428,
      "வசததரமன": 1429,
      "இனஸடகரம": 1430,
      "ஙககள": 1431,
      "நச": 1432,
      "வரய": 1433,
      "ஙகளக": 1434,
      "நனகட": 1435,
      "கதவ": 1436,
      "அழததம": 1437,
      "கறறவள": 1438,
      "சதநதரம": 1439,
      "சயயவலல": 1440,
      "தடடமடட": 1441,
      "ஆசரயரடம": 1442,
      "அதரசசயடட": 1443,
      "மணடலம": 1444,
      "மகபபரய": 1445,
      "நபண": 1446,
      "னன": 1447,
      "அவரகளல": 1448,
      "பலவனம": 1449,
      "சசழல": 1450,
      "பயனபட": 1451,
      "அவசர": 1452,
      "உடற": 1453,
      "தயள": 1454,
      "சறறசசழல": 1455,
      "ததறகம": 1456,
      "உறதபபடதத": 1457,
      "வளளம": 1458,
      "அதரசசயள": 1459,
      "ஏறறககள": 1460,
      "உறவனர": 1461,
      "உதவம": 1462,
      "ஆயரககணககன": 1463,
      "ஏதனம": 1464,
      "ஓய": 1465,
      "தமதம": 1466,
      "பமப": 1467,
      "மஜ": 1468,
      "ஹம": 1469,
      "ஹடடல": 1470,
      "பபற": 1471,
      "பரசதன": 1472,
      "கரஙக": 1473,
      "தனதத": 1474,
      "நரநதர": 1475,
      "பறறககற": 1476,
      "இயநதரம": 1477,
      "களனபட": 1478,
      "ஆறற": 1479,
      "தயல": 1480,
      "பகழ": 1481,
      "வயம": 1482,
      "கரஷ": 1483,
      "சரகக": 1484,
      "வதயம": 1485,
      "வறறகர": 1486,
      "பகபபட": 1487,
      "உறதயள": 1488,
      "உணவகம": 1489,
      "வணணம": 1490,
      "கறறசசடட": 1491,
      "கவர": 1492,
      "சததய": 1493,
      "பஎம": 1494,
      "ஸகர": 1495,
      "தரய": 1496,
      "தரதத": 1497,
      "தரபபட": 1498,
      "கரர": 1499,
      "தனர": 1500,
      "வழவக": 1501,
      "நரட": 1502,
      "அடககட": 1503,
      "சயதளளத": 1504,
      "எதரகலம": 1505,
      "வடயககள": 1506,
      "அனததயம": 1507,
      "ஹரயன": 1508,
      "எணணய": 1509,
      "இளஞர": 1510,
      "கடறகர": 1511,
      "கடடததடட": 1512,
      "அமப": 1513,
      "ஓயவ": 1514,
      "கனம": 1515,
      "ககல": 1516,
      "கரளவ": 1517,
      "சரசச": 1518,
      "வயதல": 1519,
      "மழபயர": 1520,
      "நலவ": 1521,
      "இணககவம": 1522,
      "இழபப": 1523,
      "ஆயவ": 1524,
      "ஒழ": 1525,
      "கச": 1526,
      "தளள": 1527,
      "இரகக": 1528,
      "தனமம": 1529,
      "பதககபபட": 1530,
      "சரககவம": 1531,
      "கறயளளத": 1532,
      "யரநதர": 1533,
      "மரண": 1534,
      "கலமனர": 1535,
      "தறகட": 1536,
      "வயறற": 1537,
      "தகவம": 1538,
      "உயரவ": 1539,
      "மடடள": 1540,
      "ஙகரநத": 1541,
      "ஆபபள": 1542,
      "உபப": 1543,
      "சதவ": 1544,
      "தவள": 1545,
      "நரவ": 1546,
      "உஙகளல": 1547,
      "அறமக": 1548,
      "கணகற": 1549,
      "தரவததளளர": 1550,
      "சவவகம": 1551,
      "எவவற": 1552,
      "மஸர": 1553,
      "ஈடபட": 1554,
      "ஃபர": 1555,
      "டகடர": 1556,
      "தஙகள": 1557,
      "மணம": 1558,
      "மதனம": 1559,
      "ஷல": 1560,
      "கறக": 1561,
      "பகபபடம": 1562,
      "டரமப": 1563,
      "எழபப": 1564,
      "ஆரடர": 1565,
      "எதரபர": 1566,
      "வணவள": 1567,
      "எளதக": 1568,
      "தரதரஷடவசமக": 1569,
      "பகழபறற": 1570,
      "அங": 1571,
      "எஃ": 1572,
      "சதரம": 1573,
      "டபள": 1574,
      "நனம": 1575,
      "பயம": 1576,
      "மஙக": 1577,
      "யதத": 1578,
      "ரபப": 1579,
      "ஷரம": 1580,
      "வரககம": 1581,
      "இரநதபத": 1582,
      "இதயம": 1583,
      "பணண": 1584,
      "பயனபடததவம": 1585,
      "உயரன": 1586,
      "தமபதய": 1587,
      "எமஎல": 1588,
      "ஒபபநதம": 1589,
      "கணடரநதர": 1590,
      "பதககபபடடவர": 1591,
      "ஆரயசச": 1592,
      "எசசரகக": 1593,
      "வழபபணர": 1594,
      "உடறபயறச": 1595,
      "இரநதபதலம": 1596,
      "தமபதயனர": 1597,
      "ஞன": 1598,
      "நதமனற": 1599,
      "நடபப": 1600,
      "நரகணல": 1601,
      "படடயட": 1602,
      "அரண": 1603,
      "அரததம": 1604,
      "கணபபட": 1605,
      "அழதத": 1606,
      "அவளடய": 1607,
      "நயசல": 1608,
      "வரலற": 1609,
      "தளவ": 1610,
      "பரமபலம": 1611,
      "நபணர": 1612,
      "எகஸ": 1613,
      "தபக": 1614,
      "நகசச": 1615,
      "பதன": 1616,
      "மசச": 1617,
      "பரர": 1618,
      "சயயம": 1619,
      "சரய": 1620,
      "வடபளர": 1621,
      "பறதத": 1622,
      "வறம": 1623,
      "அமசம": 1624,
      "பபரவம": 1625,
      "வககவதம": 1626,
      "கறபபக": 1627,
      "வடஸஅ": 1628,
      "அசம": 1629,
      "ஆசய": 1630,
      "சஸ": 1631,
      "டனம": 1632,
      "மசட": 1633,
      "வவதம": 1634,
      "டடள": 1635,
      "பரககறர": 1636,
      "சலமன": 1637,
      "சரககம": 1638,
      "மகமட": 1639,
      "பலதத": 1640,
      "கறபழ": 1641,
      "பபடடவர": 1642,
      "கழககள": 1643,
      "நனவ": 1644,
      "படடல": 1645,
      "யலன": 1646,
      "சசயம": 1647,
      "சயதளளனர": 1648,
      "ஜனனல": 1649,
      "அறககடடள": 1650,
      "கஷமர": 1651,
      "படடயலட": 1652,
      "சவரஸயமன": 1653,
      "இயல": 1654,
      "ஒலம": 1655,
      "கபட": 1656,
      "கபடன": 1657,
      "பகல": 1658,
      "வரயம": 1659,
      "நதயம": 1660,
      "களடமரநத": 1661,
      "மனமழ": 1662,
      "பதகக": 1663,
      "பலட": 1664,
      "வலயற": 1665,
      "தலநகர": 1666,
      "ககமற": 1667,
      "பபதவ": 1668,
      "மறநத": 1669,
      "நறததம": 1670,
      "இலகக": 1671,
      "கணண": 1672,
      "நயவய": 1673,
      "வசபப": 1674,
      "சநதன": 1675,
      "சநதபப": 1676,
      "ஆரமப": 1677,
      "சவசன": 1678,
      "வணகர": 1679,
      "பழம": 1680,
      "அதகமக": 1681,
      "ரயலவ": 1682,
      "இறநதவட": 1683,
      "நறவனர": 1684,
      "vi": 1685,
      "அதனல": 1686,
      "தபட": 1687,
      "மகர": 1688,
      "ரகல": 1689,
      "வகதம": 1690,
      "ஙகளககம": 1691,
      "பலக": 1692,
      "நடசததர": 1693,
      "பபடடளள": 1694,
      "சமம": 1695,
      "தறநத": 1696,
      "உரள": 1697,
      "நயகம": 1698,
      "கறறககளள": 1699,
      "ததறக": 1700,
      "தககல": 1701,
      "அஙககர": 1702,
      "ஆவ": 1703,
      "ஆழம": 1704,
      "உனன": 1705,
      "நப": 1706,
      "ரத": 1707,
      "லந": 1708,
      "வனல": 1709,
      "வரடம": 1710,
      "தரட": 1711,
      "மனசசர": 1712,
      "கலசசரம": 1713,
      "நரகர": 1714,
      "மறதத": 1715,
      "சமபத": 1716,
      "ளளதக": 1717,
      "அறவற": 1718,
      "வயதக": 1719,
      "ரநதர": 1720,
      "மலளர": 1721,
      "பகஸ": 1722,
      "அமசன": 1723,
      "இஙகலந": 1724,
      "பததரம": 1725,
      "கஜரத": 1726,
      "ஒடடகம": 1727,
      "பரபலமன": 1728,
      "எடததககடட": 1729,
      "இததகய": 1730,
      "மநட": 1731,
      "வககபபட": 1732,
      "பரசல": 1733,
      "கடதல": 1734,
      "ஙகளலரநத": 1735,
      "சரஙக": 1736,
      "கழகக": 1737,
      "பணபர": 1738,
      "மலக": 1739,
      "சயதளளர": 1740,
      "உயரநத": 1741,
      "சமபளம": 1742,
      "இவவற": 1743,
      "மமபடதத": 1744,
      "தளவக": 1745,
      "பதகபபக": 1746,
      "தடரபளர": 1747,
      "தனமபபடதத": 1748,
      "அனபபபபட": 1749,
      "சழநல": 1750,
      "உரமயளர": 1751,
      "வளயறவ": 1752,
      "மறறததறனள": 1753,
      "covi": 1754,
      "covid": 1755,
      "அகம": 1756,
      "ணபப": 1757,
      "மகரன": 1758,
      "ஸடட": 1759,
      "வரதம": 1760,
      "தரர": 1761,
      "இரமப": 1762,
      "எனசப": 1763,
      "மனனற": 1764,
      "வடமற": 1765,
      "கறபன": 1766,
      "நடமற": 1767,
      "பபடடளளனர": 1768,
      "மறயக": 1769,
      "தவன": 1770,
      "பயனபடட": 1771,
      "நமமத": 1772,
      "எழதனர": 1773,
      "இறகக": 1774,
      "பரதநத": 1775,
      "தழற": 1776,
      "யடல": 1777,
      "மமபழம": 1778,
      "பரநதகள": 1779,
      "ஆணயம": 1780,
      "பரவயறற": 1781,
      "அனமதககபபடவலல": 1782,
      "சனறதழ": 1783,
      "ஈடபடட": 1784,
      "வளமபரம": 1785,
      "அசசற": 1786,
      "ஆசசரயமக": 1787,
      "வறறகரமக": 1788,
      "ஆஙகலம": 1789,
      "இளம": 1790,
      "ஏல": 1791,
      "ஐககய": 1792,
      "ஒவ": 1793,
      "ஜயம": 1794,
      "மபல": 1795,
      "ரடட": 1796,
      "வசய": 1797,
      "கககட": 1798,
      "சயதர": 1799,
      "கறநத": 1800,
      "மரட": 1801,
      "மடவட": 1802,
      "பயனர": 1803,
      "நறகல": 1804,
      "மககளம": 1805,
      "சநதக": 1806,
      "கயளர": 1807,
      "ததறகன": 1808,
      "சடஙக": 1809,
      "தவறக": 1810,
      "எபபதவத": 1811,
      "உணரவ": 1812,
      "அபபததன": 1813,
      "ரகசயம": 1814,
      "ஆயதம": 1815,
      "வததயசம": 1816,
      "தனததவமன": 1817,
      "பஎமச": 1818,
      "தழறசல": 1819,
      "ஐரபப": 1820,
      "ரவ": 1821,
      "லக": 1822,
      "ஷபப": 1823,
      "பரண": 1824,
      "இரடட": 1825,
      "ஒரவள": 1826,
      "தனபப": 1827,
      "பதலம": 1828,
      "பதவன": 1829,
      "பதபபரள": 1830,
      "சரபர": 1831,
      "பலச": 1832,
      "பறகக": 1833,
      "தடககம": 1834,
      "பணயளர": 1835,
      "ஆகஸ": 1836,
      "தடரனற": 1837,
      "வடடலய": 1838,
      "கககவம": 1839,
      "இடவள": 1840,
      "வவசயம": 1841,
      "மகழசச": 1842,
      "பனறவறற": 1843,
      "மஸக": 1844,
      "பசசவரத": 1845,
      "உறதயக": 1846,
      "பததரகயளர": 1847,
      "ஏரளம": 1848,
      "கணமல": 1849,
      "அதரசசயளககறத": 1850,
      "வலயறதத": 1851,
      "ஃபட": 1852,
      "அவம": 1853,
      "அகல": 1854,
      "ஊன": 1855,
      "ஐட": 1856,
      "கஞச": 1857,
      "நயல": 1858,
      "பகள": 1859,
      "மஹ": 1860,
      "ரஹ": 1861,
      "ழவ": 1862,
      "ஹதர": 1863,
      "நதவர": 1864,
      "பதவக": 1865,
      "மகமத": 1866,
      "வலய": 1867,
      "வலர": 1868,
      "வளநட": 1869,
      "மரன": 1870,
      "மரடட": 1871,
      "நரககட": 1872,
      "பபதறகன": 1873,
      "மதயவர": 1874,
      "சனனம": 1875,
      "அழகக": 1876,
      "நதரககம": 1877,
      "மணல": 1878,
      "வரததகம": 1879,
      "அளவட": 1880,
      "சதவத": 1881,
      "தடடமட": 1882,
      "எலலவறற": 1883,
      "தறறநய": 1884,
      "சழறச": 1885,
      "அமபன": 1886,
      "இலல": 1887,
      "தபர": 1888,
      "யளளன": 1889,
      "றகம": 1890,
      "லஸ": 1891,
      "ககயம": 1892,
      "பபக": 1893,
      "நதத": 1894,
      "ததள": 1895,
      "தரக": 1896,
      "இரவரம": 1897,
      "தனக": 1898,
      "உளதற": 1899,
      "மடககவம": 1900,
      "வழவகக": 1901,
      "தடம": 1902,
      "பயல": 1903,
      "மறவட": 1904,
      "மதய": 1905,
      "இலவச": 1906,
      "இநதயவம": 1907,
      "பணப": 1908,
      "யகவம": 1909,
      "எழதய": 1910,
      "உடகர": 1911,
      "இடஙகளலம": 1912,
      "மனனண": 1913,
      "சமரபப": 1914,
      "ஆணயர": 1915,
      "ஒபபதல": 1916,
      "கவலதறயனர": 1917,
      "உறசகமக": 1918,
      "பளஸடக": 1919,
      "நயசலநத": 1920,
      "அகலம": 1921,
      "ஆனர": 1922,
      "ஆடடம": 1923,
      "ஐசச": 1924,
      "ஐஎஸ": 1925,
      "கபத": 1926,
      "சபபர": 1927,
      "பஷ": 1928,
      "மநதய": 1929,
      "ஸத": 1930,
      "பரசத": 1931,
      "கரய": 1932,
      "தனசன": 1933,
      "கழம": 1934,
      "கழபபம": 1935,
      "நரப": 1936,
      "கணடளளனர": 1937,
      "கணடளளன": 1938,
      "அரசஙக": 1939,
      "வமனபபட": 1940,
      "உயரதத": 1941,
      "தமபத": 1942,
      "அவவளவ": 1943,
      "ஏறபடவலல": 1944,
      "தஙகய": 1945,
      "நறததபபட": 1946,
      "ஹலகபட": 1947,
      "அனமதககபபடவதலல": 1948,
      "இயககனர": 1949,
      "அவத": 1950,
      "ஐஸ": 1951,
      "ஒன": 1952,
      "கங": 1953,
      "தளம": 1954,
      "யமனத": 1955,
      "வரபபம": 1956,
      "ததளளன": 1957,
      "அவரகளடன": 1958,
      "தரடட": 1959,
      "தரவழ": 1960,
      "கரள": 1961,
      "ஙகன": 1962,
      "தனததன": 1963,
      "கடகரம": 1964,
      "தலநகரம": 1965,
      "கலபநத": 1966,
      "நரகக": 1967,
      "அரகல": 1968,
      "கணமட": 1969,
      "பறறநய": 1970,
      "வயற": 1971,
      "அடபப": 1972,
      "உரயடல": 1973,
      "கயள": 1974,
      "பரமபல": 1975,
      "ஃபஸ": 1976,
      "ரஜனம": 1977,
      "உடனபட": 1978,
      "வததத": 1979,
      "அதரசசயக": 1980,
      "கநதம": 1981,
      "000": 1982,
      "ஆஸதரல": 1983,
      "சநதரன": 1984,
      "வபபல": 1985,
      "இயககநர": 1986,
      "கரநடகவ": 1987,
      "உரளககழம": 1988,
      "covid19": 1989,
      "ஹலகபடர": 1990,
      "அஞச": 1991,
      "ஒடஷ": 1992,
      "சவட": 1993,
      "சககரம": 1994,
      "ட20": 1995,
      "வககம": 1996,
      "பரவம": 1997,
      "கரமன": 1998,
      "சயக": 1999,
      "மனபதவ": 2000,
      "கடக": 2001,
      "மகவர": 2002,
      "நடம": 2003,
      "மடபபடட": 2004,
      "கலஞர": 2005,
      "கடடயம": 2006,
      "தவயலல": 2007,
      "பணயம": 2008,
      "சறவர": 2009,
      "உணண": 2010,
      "சசரகக": 2011,
      "டரன": 2012,
      "அணகல": 2013,
      "எநதவர": 2014,
      "சமபததய": 2015,
      "பரநதகளள": 2016,
      "சடடபபரவ": 2017,
      "தவறவட": 2018,
      "சயயபபடடன": 2019,
      "சழல": 2020,
      "உழபப": 2021,
      "இஸரல": 2022,
      "பலலயன": 2023,
      "தரயபபடதத": 2024,
      "இனம": 2025,
      "ஈரன": 2026,
      "ஏலம": 2027,
      "ஒத": 2028,
      "ஒதகக": 2029,
      "ஜப": 2030,
      "டகர": 2031,
      "தநதர": 2032,
      "யதக": 2033,
      "லடடர": 2034,
      "வரண": 2035,
      "படரல": 2036,
      "மனனல": 2037,
      "கடவ": 2038,
      "கடககபபடடளளன": 2039,
      "ஙகளககக": 2040,
      "பதமககள": 2041,
      "சரககர": 2042,
      "வலயம": 2043,
      "கலண": 2044,
      "பயற": 2045,
      "சறகள": 2046,
      "அடகக": 2047,
      "மதலட": 2048,
      "ஆனலன": 2049,
      "கனன": 2050,
      "ஆரஞச": 2051,
      "ஆரககயம": 2052,
      "அணநதரநத": 2053,
      "இனபப": 2054,
      "கலமடடர": 2055,
      "இணயம": 2056,
      "இணயத": 2057,
      "பளஸ": 2058,
      "மனனபப": 2059,
      "ஜரமன": 2060,
      "ஊழல": 2061,
      "மகழசசயன": 2062,
      "சகதவய": 2063,
      "படபபடபப": 2064,
      "கனமழ": 2065,
      "நதயமசசர": 2066,
      "ஆவணம": 2067,
      "வழவகககம": 2068,
      "இணயதளம": 2069,
      "is": 2070,
      "ஆடம": 2071,
      "ஊச": 2072,
      "ஊத": 2073,
      "ஓவயம": 2074,
      "சவத": 2075,
      "ஜயன": 2076,
      "தஸ": 2077,
      "மதன": 2078,
      "மணண": 2079,
      "ஷம": 2080,
      "ஷடம": 2081,
      "வரமன": 2082,
      "இரம": 2083,
      "கடவள": 2084,
      "நடநதளளத": 2085,
      "வழவ": 2086,
      "பபடடதக": 2087,
      "நரஙக": 2088,
      "மதபபட": 2089,
      "படடம": 2090,
      "அரஙக": 2091,
      "நறக": 2092,
      "வணடய": 2093,
      "பணபப": 2094,
      "ககபபடடளளர": 2095,
      "வழஙகதல": 2096,
      "சகசசய": 2097,
      "உலக": 2098,
      "அனமதககபபடம": 2099,
      "ததறகள": 2100,
      "பதகபபன": 2101,
      "அடயள": 2102,
      "நரபபவம": 2103,
      "கததட": 2104,
      "கஙகன": 2105,
      "பஞசப": 2106,
      "கரநடகம": 2107,
      "வரநதனர": 2108,
      "கறபழபப": 2109,
      "அரகலளள": 2110,
      "பணயமரதத": 2111,
      "பயறசயளர": 2112,
      "ஆடட": 2113,
      "ஒமகரன": 2114,
      "ஓவர": 2115,
      "டசய": 2116,
      "தபல": 2117,
      "பனர": 2118,
      "பககள": 2119,
      "பவன": 2120,
      "லணடன": 2121,
      "வரணம": 2122,
      "ததனம": 2123,
      "தரயர": 2124,
      "படச": 2125,
      "இரஜ": 2126,
      "கடககவலல": 2127,
      "வலவ": 2128,
      "நடப": 2129,
      "மடப": 2130,
      "ககபபடகறத": 2131,
      "பகபட": 2132,
      "நமம": 2133,
      "பயனபடததபபடம": 2134,
      "சயலபடட": 2135,
      "வஙகயம": 2136,
      "தயரபபளர": 2137,
      "அறவயல": 2138,
      "வதறகம": 2139,
      "கடடமபப": 2140,
      "சயயபபடடளளன": 2141,
      "வகபபற": 2142,
      "பரவயட": 2143,
      "பஙகளதஷ": 2144,
      "தரயறஙக": 2145,
      "வரயவம": 2146,
      "ஓயவட": 2147,
      "ஒவவனற": 2148,
      "வணடயதலல": 2149,
      "ஈடட": 2150,
      "உப": 2151,
      "ஊதயம": 2152,
      "ஏவக": 2153,
      "சபர": 2154,
      "ஜனர": 2155,
      "தளர": 2156,
      "நக": 2157,
      "பஞ": 2158,
      "யப": 2159,
      "ரககம": 2160,
      "ரககட": 2161,
      "வஜய": 2162,
      "ஷக": 2163,
      "வரகளக": 2164,
      "களககள": 2165,
      "பபடதபட": 2166,
      "தனனர": 2167,
      "வமரச": 2168,
      "சலக": 2169,
      "கறபட": 2170,
      "வளககம": 2171,
      "மரக": 2172,
      "மடகக": 2173,
      "வதககபபடம": 2174,
      "பனனல": 2175,
      "கலகதத": 2176,
      "கழய": 2177,
      "கடடர": 2178,
      "கணடவடபப": 2179,
      "கணணம": 2180,
      "வறமன": 2181,
      "யனஸ": 2182,
      "ஆகச": 2183,
      "சநதகம": 2184,
      "மககணம": 2185,
      "தலவரக": 2186,
      "ஃபஸப": 2187,
      "அமசசரவ": 2188,
      "சததயம": 2189,
      "ஆசரயரககக": 2190,
      "இனறய": 2191,
      "கணடறயபபட": 2192,
      "மகழசசயடயவலல": 2193,
      "உளளவர": 2194,
      "சஙகல": 2195,
      "தனனபபரகக": 2196,
      "மனனரம": 2197,
      "வசததரமனத": 2198,
      "அசசறததல": 2199,
      "ஃபல": 2200,
      "ஃபன": 2201,
      "அச": 2202,
      "ஜக": 2203,
      "ஞயறற": 2204,
      "டஸட": 2205,
      "பவ": 2206,
      "மபரம": 2207,
      "ரகக": 2208,
      "சயன": 2209,
      "ஒரஙக": 2210,
      "பபடன": 2211,
      "கடகக": 2212,
      "கடரம": 2213,
      "சரபப": 2214,
      "யரககம": 2215,
      "நடததர": 2216,
      "கடடபபடடளள": 2217,
      "அறவர": 2218,
      "அறயபபட": 2219,
      "வயதறகட": 2220,
      "பயனளளதக": 2221,
      "உரவ": 2222,
      "வடடதக": 2223,
      "ததயளளத": 2224,
      "இனனர": 2225,
      "அறவததளளத": 2226,
      "சறறயளள": 2227,
      "நடததபபட": 2228,
      "நகரடச": 2229,
      "மறபடடர": 2230,
      "கஜரவல": 2231,
      "வறபனயளர": 2232,
      "ஆரககயமன": 2233,
      "ஒததவ": 2234,
      "அறமகபபடதத": 2235,
      "எகஸபரஸ": 2236,
      "ஆகஸஜன": 2237,
      "an": 2238,
      "அஞசல": 2239,
      "ஆஹ": 2240,
      "ஆபபரகக": 2241,
      "உகர": 2242,
      "ஓர": 2243,
      "சஹ": 2244,
      "சனம": 2245,
      "தகரம": 2246,
      "யடம": 2247,
      "யவறற": 2248,
      "ழபப": 2249,
      "பரணட": 2250,
      "கரடட": 2251,
      "கரணட": 2252,
      "சயபவர": 2253,
      "படகர": 2254,
      "மனமயறச": 2255,
      "மறறபபட": 2256,
      "மரகக": 2257,
      "வதலம": 2258,
      "சசச": 2259,
      "சசடவ": 2260,
      "படடமப": 2261,
      "கணடபப": 2262,
      "கணககட": 2263,
      "பணககரர": 2264,
      "சறநர": 2265,
      "நலநட": 2266,
      "ஆகயவறற": 2267,
      "கறறககள": 2268,
      "ஜனநயகம": 2269,
      "சயயவம": 2270,
      "சமபயன": 2271,
      "பரயஙக": 2272,
      "மககயமன": 2273,
      "கவலர": 2274,
      "உததரகணட": 2275,
      "அதகமன": 2276,
      "ரபயகக": 2277,
      "அழகனம": 2278,
      "சபஐ": 2279,
      "அபபகத": 2280,
      "அபபதரநத": 2281,
      "பதககபபடடளளனர": 2282,
      "அபபடய": 2283,
      "அமலகக": 2284,
      "உயரழநதளளனர": 2285,
      "உததரபபரதச": 2286,
      "கழபபற": 2287,
      "நடசததரம": 2288,
      "நபளம": 2289,
      "ஆகசஜன": 2290,
      "ஞயறறககழம": 2291,
      "வயதறகடபடட": 2292,
      "அணட": 2293,
      "அஙகரநத": 2294,
      "ஆழ": 2295,
      "ஆஷ": 2296,
      "உதத": 2297,
      "ஏமறறம": 2298,
      "ஜஸ": 2299,
      "மகளர": 2300,
      "யடட": 2301,
      "வநதர": 2302,
      "களரநத": 2303,
      "அவரடம": 2304,
      "தரபத": 2305,
      "தனஷ": 2306,
      "சலதன": 2307,
      "சலவறற": 2308,
      "பலதகரம": 2309,
      "பறநத": 2310,
      "மடர": 2311,
      "கமல": 2312,
      "பனவ": 2313,
      "கடடள": 2314,
      "சமபல": 2315,
      "அரம": 2316,
      "அறய": 2317,
      "கணகறர": 2318,
      "அமநதளளத": 2319,
      "தரவததளளனர": 2320,
      "கயசசல": 2321,
      "எதரககடச": 2322,
      "உதவகம": 2323,
      "அதகரபபரவம": 2324,
      "அனததம": 2325,
      "அதரஷட": 2326,
      "பழககம": 2327,
      "சடடவரத": 2328,
      "கரததககள": 2329,
      "எழததககள": 2330,
      "பனவரமற": 2331,
      "ஒளபரபப": 2332,
      "கமபள": 2333,
      "உளளடககம": 2334,
      "இஸலம": 2335,
      "கணகணபப": 2336,
      "சயதததள": 2337,
      "மறததவட": 2338,
      "எலலவறறயம": 2339,
      "படடமபசச": 2340,
      "அஸ": 2341,
      "அசவ": 2342,
      "ஆககரம": 2343,
      "ஊறற": 2344,
      "ஒறற": 2345,
      "கபல": 2346,
      "கபரம": 2347,
      "கஞசம": 2348,
      "சவச": 2349,
      "ஞசய": 2350,
      "தமத": 2351,
      "யணம": 2352,
      "ரசரவ": 2353,
      "லபம": 2354,
      "பபல": 2355,
      "வரபப": 2356,
      "நதளளன": 2357,
      "மனயம": 2358,
      "ஒரநள": 2359,
      "தனற": 2360,
      "வலஙககள": 2361,
      "கறஸ": 2362,
      "கலககவம": 2363,
      "தடகக": 2364,
      "கழதத": 2365,
      "நரசல": 2366,
      "மறபட": 2367,
      "மறபரபப": 2368,
      "மதவடய": 2369,
      "சமமத": 2370,
      "அரஜன": 2371,
      "தவபபடட": 2372,
      "கணபபடட": 2373,
      "யனபட": 2374,
      "அவளடம": 2375,
      "நயகள": 2376,
      "கறறல": 2377,
      "இறபப": 2378,
      "சதநதர": 2379,
      "பரமபலன": 2380,
      "தயணபப": 2381,
      "ஏனன": 2382,
      "மமபட": 2383,
      "பரநதறற": 2384,
      "உடலநல": 2385,
      "ஊடக": 2386,
      "ஒபபககள": 2387,
      "ஏறபடததயளளத": 2388,
      "தறறம": 2389,
      "எரபரள": 2390,
      "எலமசச": 2391,
      "கரககல": 2392,
      "நறவபபட": 2393,
      "தமழநட": 2394,
      "அதனலதன": 2395,
      "சகசசயள": 2396,
      "ஃபள": 2397,
      "அஜய": 2398,
      "ஆஃப": 2399,
      "ஆஙகல": 2400,
      "ஒட": 2401,
      "கனற": 2402,
      "தகர": 2403,
      "னபட": 2404,
      "பசய": 2405,
      "லன": 2406,
      "ஸபன": 2407,
      "நதன": 2408,
      "டடட": 2409,
      "பரககபபடடளளத": 2410,
      "தரததம": 2411,
      "இரபபத": 2412,
      "மனய": 2413,
      "வடக": 2414,
      "மரயத": 2415,
      "பறபகல": 2416,
      "வழககம": 2417,
      "பனதடர": 2418,
      "பயபபட": 2419,
      "கடடமனம": 2420,
      "கணபபடதத": 2421,
      "கணணர": 2422,
      "ரநதத": 2423,
      "வனவறற": 2424,
      "ககபபடடதக": 2425,
      "ககபபடடளளனர": 2426,
      "யனவர": 2427,
      "நதரககலம": 2428,
      "சயதயளர": 2429,
      "வடடயட": 2430,
      "அணய": 2431,
      "சயலபடதத": 2432,
      "சதமட": 2433,
      "சயயலம": 2434,
      "வணகலம": 2435,
      "வககடட": 2436,
      "வடககயன": 2437,
      "ஜரககணட": 2438,
      "ரஜவ": 2439,
      "கவனஞர": 2440,
      "உணரக": 2441,
      "பஸபரட": 2442,
      "00ககம": 2443,
      "பனவரவனவறற": 2444,
      "அததயவசய": 2445,
      "ரலயனஸ": 2446,
      "பனனண": 2447,
      "கடறபட": 2448,
      "எறமப": 2449,
      "இரநதலம": 2450,
      "நடனமட": 2451,
      "மழபயரபளர": 2452,
      "டபளய": 2453,
      "மகரஜ": 2454,
      "மனசசரவட": 2455,
      "ஷபபங": 2456,
      "ஃபஸபகக": 2457,
      "தரயரஙக": 2458,
      "அடம": 2459,
      "அசக": 2460,
      "அசசம": 2461,
      "அகபர": 2462,
      "ஆச": 2463,
      "இபப": 2464,
      "இணட": 2465,
      "இமரன": 2466,
      "உசச": 2467,
      "எஙகம": 2468,
      "ஒளர": 2469,
      "சஙகர": 2470,
      "ஞஞன": 2471,
      "டஜ": 2472,
      "டஙக": 2473,
      "ணககன": 2474,
      "நஙக": 2475,
      "நசசயம": 2476,
      "ரஸ": 2477,
      "றவ": 2478,
      "வஞஞன": 2479,
      "ஸல": 2480,
      "பபகக": 2481,
      "வரநதர": 2482,
      "ததவம": 2483,
      "பரவல": 2484,
      "பரவன": 2485,
      "படததர": 2486,
      "படயட": 2487,
      "தனபறதத": 2488,
      "கடககபபடடளளத": 2489,
      "சரத": 2490,
      "சரஸ": 2491,
      "கறககவம": 2492,
      "யரபபத": 2493,
      "தலகக": 2494,
      "மடபபட": 2495,
      "மடயம": 2496,
      "மடககம": 2497,
      "வழநள": 2498,
      "வழவடம": 2499,
      "பனச": 2500,
      "மறகக": 2501,
      "கடடயபபட": 2502,
      "வகமக": 2503,
      "ததரகம": 2504,
      "கணகடச": 2505,
      "பறறளளத": 2506,
      "வறறயளர": 2507,
      "வறகபபட": 2508,
      "யனத": 2509,
      "பகபபடதத": 2510,
      "உறசகம": 2511,
      "பசககள": 2512,
      "எதரமற": 2513,
      "உதவவதறகக": 2514,
      "ஒனறர": 2515,
      "அதரபத": 2516,
      "அமரநதரநத": 2517,
      "லடசகக": 2518,
      "ஆதரவக": 2519,
      "சகரட": 2520,
      "தபபயட": 2521,
      "தழலதபர": 2522,
      "சதரணம": 2523,
      "நழல": 2524,
      "ஓடவட": 2525,
      "மயபபர": 2526,
      "உகரனய": 2527,
      "களரசசய": 2528,
      "மளக": 2529,
      "பரகசம": 2530,
      "பரததரககறரகள": 2531,
      "பணடய": 2532,
      "ஆரவமக": 2533,
      "ஆனத": 2534,
      "ஆனநத": 2535,
      "இரஜஜயம": 2536,
      "ஜனரல": 2537,
      "கரககலபப": 2538,
      "அவன": 2539,
      "ஆததய": 2540,
      "இசககல": 2541,
      "ஊககம": 2542,
      "ஏய": 2543,
      "ஐச": 2544,
      "கசவ": 2545,
      "சள": 2546,
      "சவம": 2547,
      "சதம": 2548,
      "சதனம": 2549,
      "தபபடட": 2550,
      "தககபபட": 2551,
      "தயன": 2552,
      "நகம": 2553,
      "பசம": 2554,
      "பமம": 2555,
      "பஸட": 2556,
      "மநல": 2557,
      "யதவ": 2558,
      "ரசய": 2559,
      "லகக": 2560,
      "லனஸ": 2561,
      "ஸன": 2562,
      "ஹஙக": 2563,
      "ததவ": 2564,
      "களவய": 2565,
      "படஎம": 2566,
      "மனநல": 2567,
      "தனயம": 2568,
      "கறயளளனர": 2569,
      "தலயட": 2570,
      "நடகளக": 2571,
      "பறபபட": 2572,
      "நனததர": 2573,
      "சசற": 2574,
      "கதபததரம": 2575,
      "மறய": 2576,
      "மறவ": 2577,
      "மறபறம": 2578,
      "இநதயன": 2579,
      "யலய": 2580,
      "படததடடம": 2581,
      "சறவள": 2582,
      "அடபபகத": 2583,
      "மலய": 2584,
      "மதலடட": 2585,
      "உரவககவம": 2586,
      "வழஙகபபடவலல": 2587,
      "நயஸ": 2588,
      "மணமகன": 2589,
      "அணகககட": 2590,
      "தடஙகய": 2591,
      "அவதனபப": 2592,
      "அதரஷடவசமக": 2593,
      "வககபபதவ": 2594,
      "பரயவலல": 2595,
      "எலலம": 2596,
      "சடடபபடடவர": 2597,
      "கவஞர": 2598,
      "உணரசச": 2599,
      "மனமயன": 2600,
      "கடயரம": 2601,
      "டலவர": 2602,
      "வககளர": 2603,
      "சமயலற": 2604,
      "ஊரவலம": 2605,
      "ஷரககன": 2606,
      "கலயடம": 2607,
      "சயயமற": 2608,
      "கழககளக": 2609,
      "சரஙகபபத": 2610,
      "மரடபப": 2611,
      "அரஙகடசய": 2612,
      "அதத": 2613,
      "அலம": 2614,
      "அகஷ": 2615,
      "ஏப": 2616,
      "ஏமறற": 2617,
      "நணட": 2618,
      "நகலட": 2619,
      "ரட": 2620,
      "ரககலம": 2621,
      "வசன": 2622,
      "வரவழ": 2623,
      "பரயம": 2624,
      "தரவம": 2625,
      "படஸ": 2626,
      "படசம": 2627,
      "எனபத": 2628,
      "கடபப": 2629,
      "பதககக": 2630,
      "பதவயற": 2631,
      "சரப": 2632,
      "சரமம": 2633,
      "வலகக": 2634,
      "வலநறததம": 2635,
      "வடத": 2636,
      "கறகள": 2637,
      "மடய": 2638,
      "வதகக": 2639,
      "வதமற": 2640,
      "கதடட": 2641,
      "மதஙகளக": 2642,
      "இலலம": 2643,
      "இலவகம": 2644,
      "கணடளளர": 2645,
      "பணததள": 2646,
      "யனயன": 2647,
      "அழககபபடம": 2648,
      "உரவம": 2649,
      "உணவள": 2650,
      "கழநதகளம": 2651,
      "டரவ": 2652,
      "தடஙகயளளத": 2653,
      "அவவற": 2654,
      "அதகரககம": 2655,
      "சவவய": 2656,
      "உலரநத": 2657,
      "பதலட": 2658,
      "இணய": 2659,
      "களவபபடடர": 2660,
      "இயறற": 2661,
      "பரநதயம": 2662,
      "சயயபபடடளளனர": 2663,
      "தலமற": 2664,
      "வததரககம": 2665,
      "கடயரபபளர": 2666,
      "வலதபறம": 2667,
      "ஒலமபக": 2668,
      "ஸடடயம": 2669,
      "அவதபபட": 2670,
      "ஐஸகரம": 2671,
      "ஏவகண": 2672,
      "ஒரஙகண": 2673,
      "அமலககததற": 2674,
      "லடசககணககன": 2675,
      "அரஙகடசயகம": 2676,
      "in": 2677,
      "ஆநதரம": 2678,
      "எவர": 2679,
      "ஏவ": 2680,
      "கபபடட": 2681,
      "டககய": 2682,
      "நவரணம": 2683,
      "மநத": 2684,
      "யகக": 2685,
      "ரபன": 2686,
      "ரகஷ": 2687,
      "றல": 2688,
      "லகர": 2689,
      "வப": 2690,
      "வஙகள": 2691,
      "ஹட": 2692,
      "பரஙக": 2693,
      "பரககபபட": 2694,
      "பரசசரம": 2695,
      "தரகக": 2696,
      "தரநஙக": 2697,
      "கரக": 2698,
      "படபடட": 2699,
      "எனஐ": 2700,
      "மனகடட": 2701,
      "கடககரர": 2702,
      "இநதர": 2703,
      "சலட": 2704,
      "சரஜ": 2705,
      "சரணட": 2706,
      "பலவம": 2707,
      "கறயத": 2708,
      "வளபபற": 2709,
      "நடததய": 2710,
      "அதவள": 2711,
      "வதய": 2712,
      "வதககபபட": 2713,
      "வதகளனபட": 2714,
      "கமபல": 2715,
      "பபடடம": 2716,
      "நரதத": 2717,
      "படடன": 2718,
      "படடர": 2719,
      "அரப": 2720,
      "வகன": 2721,
      "கணடம": 2722,
      "அறபத": 2723,
      "பணககரம": 2724,
      "சனட": 2725,
      "வழஙகபபட": 2726,
      "டரக": 2727,
      "உயரநதளளத": 2728,
      "அவசயம": 2729,
      "அலஙகர": 2730,
      "உலகளவய": 2731,
      "தயகம": 2732,
      "தயவச": 2733,
      "வவரககவம": 2734,
      "மடடமலல": 2735,
      "இணககபபடட": 2736,
      "அமரவ": 2737,
      "பழகக": 2738,
      "சறறபப": 2739,
      "சறறளவ": 2740,
      "பலசரடம": 2741,
      "தககலட": 2742,
      "கடமயன": 2743,
      "தளவன": 2744,
      "ஜரண": 2745,
      "ரஜப": 2746,
      "பஙகற": 2747,
      "இழகக": 2748,
      "நணபரகளடன": 2749,
      "கரபபண": 2750,
      "பரடடஷ": 2751,
      "வபததகக": 2752,
      "மசபட": 2753,
      "இடயயன": 2754,
      "ஏறறககளள": 2755,
      "சலலபபட": 2756,
      "வணணபபம": 2757,
      "கடயரபப": 2758,
      "நதயதவ": 2759,
      "வளமபர": 2760,
      "வழபபழம": 2761,
      "பரமபனம": 2762,
      "ஐபஎல": 2763,
      "கரஷண": 2764,
      "சததயமறற": 2765,
      "மணமண": 2766,
      "ஆரமபம": 2767,
      "அறவறதத": 2768,
      "ish": 2769,
      "டஜடடல": 2770,
      "இசககலஞர": 2771,
      "ரசயஙகள": 2772,
      "ஆகக": 2773,
      "ஆவயதல": 2774,
      "இபபகத": 2775,
      "சககர": 2776,
      "சஞசம": 2777,
      "நஷ": 2778,
      "பஹல": 2779,
      "மவ": 2780,
      "மசல": 2781,
      "யதறகக": 2782,
      "வதன": 2783,
      "வரசர": 2784,
      "வரமனம": 2785,
      "நததக": 2786,
      "நதளளர": 2787,
      "களற": 2788,
      "களடய": 2789,
      "பரமண": 2790,
      "பரனஸ": 2791,
      "படபட": 2792,
      "தனசர": 2793,
      "கடததல": 2794,
      "மகஜன": 2795,
      "வடகடட": 2796,
      "கறநதளளத": 2797,
      "மரத": 2798,
      "வழயக": 2799,
      "கழமம": 2800,
      "கதடடல": 2801,
      "அனன": 2802,
      "மறநள": 2803,
      "கடடண": 2804,
      "சமபப": 2805,
      "சமடட": 2806,
      "அரநத": 2807,
      "அரபய": 2808,
      "அரவநத": 2809,
      "மககளல": 2810,
      "அறநத": 2811,
      "டமம": 2812,
      "கணத": 2813,
      "சறதத": 2814,
      "வயக": 2815,
      "மழவதலம": 2816,
      "மலணம": 2817,
      "யனற": 2818,
      "ஏறப": 2819,
      "பபரண": 2820,
      "பததணட": 2821,
      "டரம": 2822,
      "கயற": 2823,
      "அணயம": 2824,
      "இறசச": 2825,
      "உதவயளர": 2826,
      "இடபப": 2827,
      "ககரய": 2828,
      "சயயபபடம": 2829,
      "பகதயகம": 2830,
      "வவகரதத": 2831,
      "எணணம": 2832,
      "மககயமனத": 2833,
      "மமபடட": 2834,
      "வரவபடதத": 2835,
      "உததரவடட": 2836,
      "கணடறதத": 2837,
      "ஒபபநத": 2838,
      "வததடன": 2839,
      "பதலளககவம": 2840,
      "சஙகட": 2841,
      "கழவனர": 2842,
      "சலலபபரண": 2843,
      "இளவரசர": 2844,
      "வவதககவம": 2845,
      "பபடடரககம": 2846,
      "தறகலக": 2847,
      "ஆமபல": 2848,
      "பயரடபபட": 2849,
      "வததயசமக": 2850,
      "சபபய": 2851,
      "ஊரடஙக": 2852,
      "நனகடயக": 2853,
      "தடடமடடளளத": 2854,
      "ஒழஙக": 2855,
      "தளளபட": 2856,
      "ஒலமபகக": 2857,
      "மறநதவட": 2858,
      "அகமதபத": 2859,
      "அவமத": 2860,
      "தநதரவ": 2861,
      "வபததககளளன": 2862,
      "அஜ": 2863,
      "உசசர": 2864,
      "எஙகரநத": 2865,
      "கசசல": 2866,
      "சஎஸ": 2867,
      "டசல": 2868,
      "தசய": 2869,
      "நநத": 2870,
      "மநதர": 2871,
      "யமக": 2872,
      "ரஜன": 2873,
      "ஷணட": 2874,
      "வரகத": 2875,
      "வரவறக": 2876,
      "நதல": 2877,
      "ததக": 2878,
      "பரஞச": 2879,
      "தரமன": 2880,
      "கரஸ": 2881,
      "சயவதறகன": 2882,
      "இரவரககம": 2883,
      "மனச": 2884,
      "மனஜ": 2885,
      "தனநபர": 2886,
      "ஙகளககன": 2887,
      "பதவற": 2888,
      "சரயக": 2889,
      "தலவ": 2890,
      "தலஙகன": 2891,
      "நடஞசல": 2892,
      "மரப": 2893,
      "பறயளர": 2894,
      "மடஙக": 2895,
      "மடபபடடளளன": 2896,
      "வதகம": 2897,
      "கமழ": 2898,
      "கலன": 2899,
      "கலவட": 2900,
      "கலகடடம": 2901,
      "தடன": 2902,
      "ககளம": 2903,
      "சமள": 2904,
      "சமமன": 2905,
      "அரசயலம": 2906,
      "நறமற": 2907,
      "கணடவர": 2908,
      "கணன": 2909,
      "பணநககம": 2910,
      "தறபதய": 2911,
      "அடரதத": 2912,
      "வறபடட": 2913,
      "மலவ": 2914,
      "பயனட": 2915,
      "பயனள": 2916,
      "அவளல": 2917,
      "நயயர": 2918,
      "உயரனம": 2919,
      "அணவகபப": 2920,
      "அதகரபபரவ": 2921,
      "வரததமக": 2922,
      "பரமபபட": 2923,
      "வளயடவலல": 2924,
      "வளயடபபடவலல": 2925,
      "இணககபபடடளளத": 2926,
      "யடய": 2927,
      "அதனபறக": 2928,
      "மனனஞசல": 2929,
      "மனனறறம": 2930,
      "ஜரச": 2931,
      "ஆணகள": 2932,
      "பலமபயர": 2933,
      "கரபபன": 2934,
      "ஹலன": 2935,
      "அனமதககபபடகறரகள": 2936,
      "கடனமக": 2937,
      "எரவய": 2938,
      "மலலய": 2939,
      "ஒடடகசச": 2940,
      "தயமழ": 2941,
      "அரசயலவத": 2942,
      "பரமரபப": 2943,
      "தககரணட": 2944,
      "தளவபடதத": 2945,
      "பரரததன": 2946,
      "பரவயறறவர": 2947,
      "பதவகயளளத": 2948,
      "வதததளளத": 2949,
      "உபகரணம": 2950,
      "நலநடககம": 2951,
      "ஊககமள": 2952,
      "மழவதலமரநத": 2953,
      "ஆமபலனஸ": 2954,
      "15": 2955,
      "ஃபரட": 2956,
      "ஃபடன": 2957,
      "ஃபகஸ": 2958,
      "அசமன": 2959,
      "ஆதம": 2960,
      "ஆஜர": 2961,
      "எமட": 2962,
      "எஞசய": 2963,
      "சண": 2964,
      "தவல": 2965,
      "நசச": 2966,
      "மவர": 2967,
      "மயர": 2968,
      "ரவத": 2969,
      "லணடர": 2970,
      "வஜ": 2971,
      "வநய": 2972,
      "ஸக": 2973,
      "ததட": 2974,
      "ததகக": 2975,
      "தததற": 2976,
      "ததளம": 2977,
      "களபகள": 2978,
      "பரழ": 2979,
      "தரபபம": 2980,
      "கரப": 2981,
      "கடயற": 2982,
      "பதவடட": 2983,
      "பதமஸர": 2984,
      "சலவக": 2985,
      "சரன": 2986,
      "மகத": 2987,
      "மகசக": 2988,
      "இதயல": 2989,
      "வடகணட": 2990,
      "கறயட": 2991,
      "கறகயல": 2992,
      "வளகம": 2993,
      "வளககபபடம": 2994,
      "யரல": 2995,
      "தலப": 2996,
      "நடகம": 2997,
      "பனத": 2998,
      "பனசல": 2999,
      "ககளல": 3000,
      "ககளயம": 3001,
      "மறயட": 3002,
      "லலவ": 3003,
      "படடங": 3004,
      "வலலநர": 3005,
      "தறநதரககம": 3006,
      "மலதனம": 3007,
      "அழத": 3008,
      "பகதர": 3009,
      "வழஙகபபடடளளத": 3010,
      "வழஙகயளளத": 3011,
      "ஏறக": 3012,
      "பசவ": 3013,
      "ஆரபபடடம": 3014,
      "வடடலரநத": 3015,
      "வடடககரர": 3016,
      "ஜனஸ": 3017,
      "அதகரபப": 3018,
      "அளககபபட": 3019,
      "அனவரயம": 3020,
      "பகதயக": 3021,
      "வககல": 3022,
      "தயரக": 3023,
      "தயரககபபட": 3024,
      "பரயகம": 3025,
      "அனமதககவலல": 3026,
      "ததனமன": 3027,
      "கடசசல": 3028,
      "சடனம": 3029,
      "கவனததர": 3030,
      "ஆதரவளர": 3031,
      "அமசசரக": 3032,
      "இழபபட": 3033,
      "பஜகவ": 3034,
      "எனனவக": 3035,
      "எனனடன": 3036,
      "ஏரள": 3037,
      "மறபடடவர": 3038,
      "ஐநதவத": 3039,
      "களரகலம": 3040,
      "ஊககவககவம": 3041,
      "2020": 3042,
      "வபபநல": 3043,
      "தஷபரயகம": 3044,
      "மதரயக": 3045,
      "மதபபண": 3046,
      "வனறளளர": 3047,
      "இடதபறம": 3048,
      "மடநதவர": 3049,
      "ஜபபனய": 3050,
      "மடடளதனம": 3051,
      "அரணமன": 3052,
      "கறநதபடசம": 3053,
      "ஐரபபய": 3054,
      "ஆடடமழ": 3055,
      "மரகககடசசல": 3056,
      "ஃபடனவஸ": 3057,
      "10": 3058,
      "2வத": 3059,
      "ar": 3060,
      "அகர": 3061,
      "இததல": 3062,
      "ஈரம": 3063,
      "ஒடடம": 3064,
      "ஓல": 3065,
      "கபச": 3066,
      "ஙகக": 3067,
      "டப": 3068,
      "தபபட": 3069,
      "தநர": 3070,
      "தககபபடட": 3071,
      "நசசல": 3072,
      "னக": 3073,
      "மபத": 3074,
      "ரததன": 3075,
      "வககட": 3076,
      "ஷவ": 3077,
      "ஹவ": 3078,
      "வரபபட": 3079,
      "வரவலல": 3080,
      "ததனர": 3081,
      "பரமற": 3082,
      "சயர": 3083,
      "சயறக": 3084,
      "இரதத": 3085,
      "இரமல": 3086,
      "ஙகளனபட": 3087,
      "பதவகய": 3088,
      "சலபப": 3089,
      "மறறயம": 3090,
      "சரயர": 3091,
      "இதவம": 3092,
      "நடவ": 3093,
      "அதகல": 3094,
      "மடல": 3095,
      "கலயக": 3096,
      "கலவரம": 3097,
      "நரயரல": 3098,
      "கடடல": 3099,
      "கடடபபடதத": 3100,
      "கடடபபடடளளன": 3101,
      "சமஜ": 3102,
      "அரசம": 3103,
      "ததரநதர": 3104,
      "பணககர": 3105,
      "சனனர": 3106,
      "மழநர": 3107,
      "மலயதத": 3108,
      "ஆகயர": 3109,
      "வழஙகவலல": 3110,
      "வசபபட": 3111,
      "பததக": 3112,
      "எதரகல": 3113,
      "இறககம": 3114,
      "அதகரததளளத": 3115,
      "தவரககவம": 3116,
      "சதபபடதத": 3117,
      "சவசம": 3118,
      "வழககபபதவ": 3119,
      "வளயடபபடம": 3120,
      "தழவ": 3121,
      "தணடககபபட": 3122,
      "எழதபபடடளளத": 3123,
      "பளக": 3124,
      "ரஷன": 3125,
      "மஸடர": 3126,
      "வநதபத": 3127,
      "தரமணமதறக": 3128,
      "மயனம": 3129,
      "கஙகல": 3130,
      "பனனக": 3131,
      "சததரத": 3132,
      "இதபலற": 3133,
      "உளளடகக": 3134,
      "கணகணபபளர": 3135,
      "அசசட": 3136,
      "கரதபபட": 3137,
      "சயததக": 3138,
      "தமழநடட": 3139,
      "ஆரககயமக": 3140,
      "ரதயக": 3141,
      "எடததககடடக": 3142,
      "அகமத": 3143,
      "ரஹத": 3144,
      "வலயயரநத": 3145,
      "அடபபககற": 3146,
      "ஆடமபர": 3147,
      "அலமர": 3148,
      "கறயதவத": 3149,
      "அரசயலமபப": 3150,
      "இதயலலம": 3151,
      "இததன": 3152,
      "ஏஐ": 3153,
      "கசல": 3154,
      "கஃப": 3155,
      "சபபடட": 3156,
      "சதற": 3157,
      "சகரம": 3158,
      "சஆர": 3159,
      "டகக": 3160,
      "நககபபட": 3161,
      "பசசன": 3162,
      "வககறத": 3163,
      "ஷனர": 3164,
      "ஹப": 3165,
      "ஹகக": 3166,
      "ஹசன": 3167,
      "ஹமஸ": 3168,
      "ஹஷட": 3169,
      "ஹஜப": 3170,
      "பபச": 3171,
      "பபவர": 3172,
      "வரததய": 3173,
      "வரவரககம": 3174,
      "தததக": 3175,
      "களப": 3176,
      "கரனல": 3177,
      "சயஸ": 3178,
      "இரககம": 3179,
      "ளளம": 3180,
      "லமப": 3181,
      "லமற": 3182,
      "பதவயறற": 3183,
      "சரககபபட": 3184,
      "வலபபடதத": 3185,
      "வலததளம": 3186,
      "வடகல": 3187,
      "கறககபபடடளளத": 3188,
      "அதவ": 3189,
      "பறததல": 3190,
      "வதககபபடடத": 3191,
      "கமஷனர": 3192,
      "பபடடளளர": 3193,
      "கலநட": 3194,
      "நனவர": 3195,
      "அனபம": 3196,
      "மறயளளத": 3197,
      "மதபனம": 3198,
      "கடடளர": 3199,
      "சமநல": 3200,
      "அரடட": 3201,
      "வகததல": 3202,
      "வணடர": 3203,
      "சனய": 3204,
      "சனககழம": 3205,
      "தறபப": 3206,
      "வனத": 3207,
      "தகனம": 3208,
      "மலலம": 3209,
      "அழவ": 3210,
      "வழஙகவதக": 3211,
      "நயககடட": 3212,
      "பபரபப": 3213,
      "சகஸ": 3214,
      "மணநத": 3215,
      "சநதய": 3216,
      "கனட": 3217,
      "ஆரட": 3218,
      "வரமபவதக": 3219,
      "உதவயடன": 3220,
      "தடஙகயளளனர": 3221,
      "சயலதறன": 3222,
      "ஜனசன": 3223,
      "பரமபரய": 3224,
      "பரமபரயம": 3225,
      "வவகரம": 3226,
      "தயரகக": 3227,
      "பளளததகக": 3228,
      "பரயவர": 3229,
      "அனறடம": 3230,
      "எஸச": 3231,
      "மதமம": 3232,
      "எலன": 3233,
      "நகரவர": 3234,
      "இயஙக": 3235,
      "மனனசசரகக": 3236,
      "வரஸல": 3237,
      "ஒவவரவர": 3238,
      "அறககயனபட": 3239,
      "நனறயளள": 3240,
      "சததமக": 3241,
      "சததஸகர": 3242,
      "உணரகறர": 3243,
      "ஆசசரயமன": 3244,
      "ரனவர": 3245,
      "சரமபபட": 3246,
      "மகழசசயறற": 3247,
      "சதரஙகள": 3248,
      "எணணககயலன": 3249,
      "கரபபமக": 3250,
      "கணடரநதபத": 3251,
      "கததரநத": 3252,
      "களளலம": 3253,
      "களளவலல": 3254,
      "இறநதளளனர": 3255,
      "பயஙகரமன": 3256,
      "201": 3257,
      "ஆயஷ": 3258,
      "ஆயவளர": 3259,
      "மதபபளள": 3260,
      "நறவனமனம": 3261,
      "பஙகளரவ": 3262,
      "கலயண": 3263,
      "மஜக": 3264,
      "சரககமக": 3265,
      "வணணமயம": 3266,
      "எமஎலஏ": 3267,
      "நகசசவய": 3268,
      "பதனகழம": 3269,
      "பறததவர": 3270,
      "இயலபக": 3271,
      "நரககமன": 3272,
      "ஒடஷவ": 3273,
      "பறநதநள": 3274,
      "படயடபப": 3275,
      "அகஷய": 3276,
      "பதவயறப": 3277,
      "பரமணர": 3278,
      "சறததணடன": 3279,
      "பதவகயளளன": 3280,
      "இறககமத": 3281,
      "3வத": 3282,
      "ஃபத": 3283,
      "அவதற": 3284,
      "ஊடடம": 3285,
      "ஙகரம": 3286,
      "சடன": 3287,
      "சவன": 3288,
      "டணட": 3289,
      "டமர": 3290,
      "தககள": 3291,
      "நவ": 3292,
      "நவன": 3293,
      "பஹர": 3294,
      "ரயன": 3295,
      "லஃபட": 3296,
      "ஸலட": 3297,
      "ஹக": 3298,
      "ஹத": 3299,
      "ஹநத": 3300,
      "ஹடஸ": 3301,
      "வரவல": 3302,
      "வரவதக": 3303,
      "பரதன": 3304,
      "பரமறறம": 3305,
      "பரரச": 3306,
      "பரழவ": 3307,
      "தரககள": 3308,
      "தரககபபட": 3309,
      "ஒரமற": 3310,
      "பபடததய": 3311,
      "தனவ": 3312,
      "கடலர": 3313,
      "பதடடம": 3314,
      "மறறனற": 3315,
      "சரட": 3316,
      "மகஸ": 3317,
      "பலனம": 3318,
      "பலவன": 3319,
      "பலஸதன": 3320,
      "தலவல": 3321,
      "உளநட": 3322,
      "ககமட": 3323,
      "மடவம": 3324,
      "நரமல": 3325,
      "நரநதரம": 3326,
      "மறபப": 3327,
      "சமண": 3328,
      "அரசர": 3329,
      "அரதக": 3330,
      "கணடல": 3331,
      "தவநதர": 3332,
      "அறநதரநத": 3333,
      "தறகன": 3334,
      "தகவலம": 3335,
      "மதலடம": 3336,
      "நலய": 3337,
      "உரபபட": 3338,
      "ஆகவட": 3339,
      "வழஙகபபடடன": 3340,
      "நயயம": 3341,
      "நயமனம": 3342,
      "சநதம": 3343,
      "ஆரயன": 3344,
      "ஆரவலர": 3345,
      "வடடவ": 3346,
      "எடககபபடம": 3347,
      "அணயவலல": 3348,
      "இறஙக": 3349,
      "உடகள": 3350,
      "உடபடதத": 3351,
      "இனபபர": 3352,
      "அளததளளர": 3353,
      "வழககமன": 3354,
      "அதரஷடம": 3355,
      "வணக": 3356,
      "வககன": 3357,
      "தயரககவம": 3358,
      "பதயட": 3359,
      "மடடமல": 3360,
      "அதனடன": 3361,
      "சடலம": 3362,
      "எமஎஸ": 3363,
      "பரவககட": 3364,
      "தலலயல": 3365,
      "வடவமபப": 3366,
      "ரபயக": 3367,
      "பரசசனயம": 3368,
      "199": 3369,
      "ஒபபககணட": 3370,
      "சயயபபடடளளர": 3371,
      "ஆசசரயபபட": 3372,
      "நழவ": 3373,
      "இறநதவடடதக": 3374,
      "ஏரலனஸ": 3375,
      "ஏறறமத": 3376,
      "பயஙகரவதம": 3377,
      "பறபபல": 3378,
      "பலஸகரர": 3379,
      "இஸர": 3380,
      "கழபபமட": 3381,
      "படபபடயக": 3382,
      "நடநதளளன": 3383,
      "இயலபன": 3384,
      "வசபபவர": 3385,
      "இரடடயர": 3386,
      "நரககமக": 3387,
      "உடனபடவலல": 3388,
      "ஆஸதரலயல": 3389,
      "கடடபபடடளளபட": 3390,
      "ஏமறறமட": 3391,
      "அணகககடய": 3392,
      "படஸமன": 3393,
      "பரஙகடல": 3394,
      "வபததககளளனத": 3395,
      "அடரததயன": 3396,
      "மயனமர": 3397,
      "4வத": 3398,
      "un": 3399,
      "அகத": 3400,
      "அவமன": 3401,
      "அசகர": 3402,
      "ஆவண": 3403,
      "எமர": 3404,
      "ஒறறம": 3405,
      "ஓநய": 3406,
      "ஓரன": 3407,
      "சதக": 3408,
      "ஜங": 3409,
      "ஜமம": 3410,
      "டசயம": 3411,
      "தபம": 3412,
      "பககட": 3413,
      "பககர": 3414,
      "பஜர": 3415,
      "பகறர": 3416,
      "பஷன": 3417,
      "யண": 3418,
      "யஸ": 3419,
      "ரவர": 3420,
      "றகல": 3421,
      "வசற": 3422,
      "வளளர": 3423,
      "வநயகம": 3424,
      "ஸவர": 3425,
      "ஸடன": 3426,
      "ஹய": 3427,
      "ஹணட": 3428,
      "பபனம": 3429,
      "பபததர": 3430,
      "நதவடன": 3431,
      "ததவடன": 3432,
      "களபப": 3433,
      "களகம": 3434,
      "களயல": 3435,
      "பரப": 3436,
      "பரவர": 3437,
      "தரநறற": 3438,
      "தரவரச": 3439,
      "தரடச": 3440,
      "சயறகக": 3441,
      "ணடஸ": 3442,
      "படவம": 3443,
      "படககவலல": 3444,
      "இரககவலல": 3445,
      "இரஙகல": 3446,
      "எனனல": 3447,
      "மனவய": 3448,
      "மனபரள": 3449,
      "பபடயன": 3450,
      "தனபறததல": 3451,
      "கடபயர": 3452,
      "சரபரககவம": 3453,
      "பலநத": 3454,
      "வலகல": 3455,
      "கறபதத": 3456,
      "கறயரநதர": 3457,
      "கறயடட": 3458,
      "கறயரபபத": 3459,
      "யரபப": 3460,
      "அதபரக": 3461,
      "பறமதல": 3462,
      "மடக": 3463,
      "வழநடதத": 3464,
      "கமற": 3465,
      "பனதடரப": 3466,
      "கலகக": 3467,
      "நரண": 3468,
      "நரததலம": 3469,
      "அனல": 3470,
      "மதகலம": 3471,
      "கடடய": 3472,
      "நஙகளம": 3473,
      "அரதத": 3474,
      "நறவட": 3475,
      "இலவசம": 3476,
      "வகவ": 3477,
      "வகஸ": 3478,
      "இநதயபகஸதன": 3479,
      "இநதயவலம": 3480,
      "டனனஸ": 3481,
      "அறநதர": 3482,
      "அறபதம": 3483,
      "பறறயம": 3484,
      "மழஙகல": 3485,
      "வனததற": 3486,
      "நலன": 3487,
      "சசயன": 3488,
      "உரமம": 3489,
      "இரணடவதக": 3490,
      "தடரசச": 3491,
      "கறறபபததர": 3492,
      "சயதளளன": 3493,
      "சநதமக": 3494,
      "கனசதரம": 3495,
      "உயரமன": 3496,
      "தமஙகலம": 3497,
      "அதகரகளம": 3498,
      "உடகரம": 3499,
      "இடக": 3500,
      "தவரமக": 3501,
      "அளததளளத": 3502,
      "ஒனறண": 3503,
      "சயயபபடவலல": 3504,
      "இஙகஃ": 3505,
      "வககலம": 3506,
      "தயரம": 3507,
      "வரலறற": 3508,
      "தணடதல": 3509,
      "நடததபபடம": 3510,
      "தளபத": 3511,
      "தளவறற": 3512,
      "வஷய": 3513,
      "நறததவ": 3514,
      "அதகபபடயன": 3515,
      "மஸரம": 3516,
      "சததககம": 3517,
      "பரததமன": 3518,
      "கபதர": 3519,
      "சதரமன": 3520,
      "கணடரநதன": 3521,
      "கணடரநதள": 3522,
      "எரசசல": 3523,
      "எழததளர": 3524,
      "தனனநத": 3525,
      "தரநதடககவம": 3526,
      "நறறககணககன": 3527,
      "ஆறவத": 3528,
      "களதரககன": 3529,
      "பரபலமட": 3530,
      "மளகய": 3531,
      "பரகச": 3532,
      "சணடயட": 3533,
      "உழபபள": 3534,
      "ககணடரநத": 3535,
      "ஈரககபபட": 3536,
      "எதரனத": 3537,
      "வணணபபககவம": 3538,
      "இயறகயக": 3539,
      "வசசளர": 3540,
      "அதரசசயளககற": 3541,
      "பகபபடஙகள": 3542,
      "நகசசவ": 3543,
      "நயவயப": 3544,
      "நயவயபபடட": 3545,
      "ஊனமறறர": 3546,
      "000ககம": 3547,
      "வரணச": 3548,
      "மதனமதல": 3549,
      "பதகபபனத": 3550,
      "தனனரவலர": 3551,
      "அறயபபடட": 3552,
      "சடடவரதமக": 3553,
      "அரஜனடன": 3554,
      "களரசசயக": 3555,
      "ஹஙகங": 3556,
      "வரகதயட": 3557,
      "ஏறகவலல": 3558,
      "ஒடடமததம": 3559,
      "தரநறறம": 3560,
      "சயறகககள": 3561,
      "கறயரபபதவத": 3562,
      "பனதடரபவர": 3563,
      "te": 3564,
      "அபத": 3565,
      "அஜத": 3566,
      "இலலத": 3567,
      "உமர": 3568,
      "எளம": 3569,
      "கஹல": 3570,
      "சஏ": 3571,
      "சகலட": 3572,
      "ஜவ": 3573,
      "ஜஷ": 3574,
      "ஜகக": 3575,
      "தநதரம": 3576,
      "தவலயம": 3577,
      "நஜ": 3578,
      "யதர": 3579,
      "ரபபத": 3580,
      "லச": 3581,
      "வஙகம": 3582,
      "ஷகர": 3583,
      "ஸகட": 3584,
      "கககக": 3585,
      "பபப": 3586,
      "பபழவ": 3587,
      "வரவர": 3588,
      "கரடன": 3589,
      "படஜட": 3590,
      "மனக": 3591,
      "கடககணககன": 3592,
      "கடவசச": 3593,
      "ஙகளள": 3594,
      "சலவம": 3595,
      "சலவட": 3596,
      "சரக": 3597,
      "மகநதர": 3598,
      "பலதன": 3599,
      "வடகபபட": 3600,
      "வளக": 3601,
      "யரம": 3602,
      "தலதர": 3603,
      "நடகளககள": 3604,
      "பறகம": 3605,
      "பறவலல": 3606,
      "கலவர": 3607,
      "கழவம": 3608,
      "பபதறகம": 3609,
      "மறகநத": 3610,
      "மதகக": 3611,
      "சமதத": 3612,
      "னலட": 3613,
      "இபபதகக": 3614,
      "பணகளககம": 3615,
      "சறசறபப": 3616,
      "சனஹ": 3617,
      "சனடடர": 3618,
      "தறவ": 3619,
      "பறறளளனர": 3620,
      "பறறளளர": 3621,
      "வறணட": 3622,
      "தகஷ": 3623,
      "மதலள": 3624,
      "மதலவத": 3625,
      "நலபபட": 3626,
      "நலகம": 3627,
      "நலததட": 3628,
      "நலபபரபப": 3629,
      "நதரபப": 3630,
      "உணவக": 3631,
      "அமககபபடடளளத": 3632,
      "பததயம": 3633,
      "கழநதகளடன": 3634,
      "மணபபர": 3635,
      "சயதவர": 3636,
      "நமபப": 3637,
      "பசபபட": 3638,
      "பயனபடததபபட": 3639,
      "சநதமனத": 3640,
      "வடடலம": 3641,
      "எடககவலல": 3642,
      "அவசரம": 3643,
      "அளவடட": 3644,
      "சதஷ": 3645,
      "சமபற": 3646,
      "தயனம": 3647,
      "பளளயட": 3648,
      "எஸட": 3649,
      "பழத": 3650,
      "சறறடர": 3651,
      "எழதபபடட": 3652,
      "தலவரகளம": 3653,
      "பளணடர": 3654,
      "களவபபட": 3655,
      "லடசததககம": 3656,
      "சடடககட": 3657,
      "சடடபபரவம": 3658,
      "உணமயலய": 3659,
      "பரதமரக": 3660,
      "கவனமக": 3661,
      "கவனககறர": 3662,
      "தஙகமடம": 3663,
      "அஙகய": 3664,
      "கவயல": 3665,
      "ஆசரம": 3666,
      "ஆலசகர": 3667,
      "தணகக": 3668,
      "மகழசசயடன": 3669,
      "ஜயபபர": 3670,
      "யரநதனர": 3671,
      "கணடரநதனர": 3672,
      "வநதண": 3673,
      "தலமட": 3674,
      "தலமயகம": 3675,
      "ககணகக": 3676,
      "பததரக": 3677,
      "களளயட": 3678,
      "இறநதவர": 3679,
      "சஙகபபர": 3680,
      "பதகபபதறகக": 3681,
      "மயநகர": 3682,
      "மசமட": 3683,
      "சனறரநதர": 3684,
      "பறபபக": 3685,
      "சலலவலல": 3686,
      "சததரவ": 3687,
      "சநதரப": 3688,
      "சஷல": 3689,
      "பஞசபன": 3690,
      "கதரன": 3691,
      "வததயச": 3692,
      "வளபபடயக": 3693,
      "உரவககயளளத": 3694,
      "ஸரநகர": 3695,
      "வசதயக": 3696,
      "ஜதநதர": 3697,
      "தயலநத": 3698,
      "மழபயரபபளர": 3699,
      "வழபபணரவ": 3700,
      "அசமல": 3701,
      "டனமரக": 3702,
      "தலநகரன": 3703,
      "தனபபபட": 3704,
      "பளஸம": 3705,
      "அறயபபடகற": 3706,
      "ஓரளவ": 3707,
      "ஆககரமபப": 3708,
      "இணடக": 3709,
      "சஎஸக": 3710,
      "ஒடடகசசவஙக": 3711,
      "வநயககக": 3712,
      "நரணய": 3713,
      "aa": 3714,
      "ad": 3715,
      "அவட": 3716,
      "அபதல": 3717,
      "அயதத": 3718,
      "ஆநதர": 3719,
      "உபர": 3720,
      "கனர": 3721,
      "சவய": 3722,
      "ஜமப": 3723,
      "ஞனம": 3724,
      "ஞசன": 3725,
      "தமர": 3726,
      "தஜம": 3727,
      "நசசய": 3728,
      "னப": 3729,
      "மமத": 3730,
      "யததர": 3731,
      "ரஹன": 3732,
      "லரன": 3733,
      "லகனவ": 3734,
      "ளட": 3735,
      "வங": 3736,
      "வஹன": 3737,
      "ஸபஸ": 3738,
      "ககத": 3739,
      "வரன": 3740,
      "வரயற": 3741,
      "டடமக": 3742,
      "பரகர": 3743,
      "பரததம": 3744,
      "பரககலம": 3745,
      "தரபர": 3746,
      "தரமத": 3747,
      "கரபட": 3748,
      "கரசச": 3749,
      "படககவம": 3750,
      "படபபர": 3751,
      "மனஸ": 3752,
      "மனககள": 3753,
      "பபடபப": 3754,
      "பபடகறரகள": 3755,
      "தனய": 3756,
      "கடஸ": 3757,
      "கடபட": 3758,
      "ஙகளல": 3759,
      "வமல": 3760,
      "பதவறற": 3761,
      "பதககபபடடளளத": 3762,
      "சலசயஸ": 3763,
      "மறறவ": 3764,
      "சரள": 3765,
      "சரசய": 3766,
      "சரறறம": 3767,
      "மகணம": 3768,
      "மகதம": 3769,
      "பலலட": 3770,
      "கறமப": 3771,
      "கறககபபடட": 3772,
      "வளஙக": 3773,
      "வளமணடலம": 3774,
      "யரடம": 3775,
      "யரககலம": 3776,
      "தலக": 3777,
      "உளசசல": 3778,
      "அதசயம": 3779,
      "மபம": 3780,
      "பறபபடடத": 3781,
      "மடதரதத": 3782,
      "வதட": 3783,
      "கலநதர": 3784,
      "கலதடம": 3785,
      "பயஙகரம": 3786,
      "நனககற": 3787,
      "சசவட": 3788,
      "கதயலரநத": 3789,
      "மதபபம": 3790,
      "கடடட": 3791,
      "டனன": 3792,
      "டனசன": 3793,
      "டனலட": 3794,
      "வணடயரககம": 3795,
      "அறவட": 3796,
      "அறமகம": 3797,
      "கணவலல": 3798,
      "பறறவர": 3799,
      "படமணடன": 3800,
      "வயதட": 3801,
      "மழவதயம": 3802,
      "நலவழ": 3803,
      "நலசசர": 3804,
      "அழககவம": 3805,
      "அழககறர": 3806,
      "அழககபபடடத": 3807,
      "உரடட": 3808,
      "தடரசசயன": 3809,
      "நயகக": 3810,
      "கழநதயம": 3811,
      "பசஸ": 3812,
      "சநதமன": 3813,
      "ஆணடர": 3814,
      "கனபர": 3815,
      "உயரயல": 3816,
      "உயரமடட": 3817,
      "ககறள": 3818,
      "கயட": 3819,
      "வடடககள": 3820,
      "தமஸ": 3821,
      "எதரவன": 3822,
      "ததயளளர": 3823,
      "இடமறறம": 3824,
      "இடமற": 3825,
      "இடததலரநத": 3826,
      "இடநககம": 3827,
      "உலகளவ": 3828,
      "பரதச": 3829,
      "வழககமக": 3830,
      "எநதநத": 3831,
      "பரமகர": 3832,
      "தழறச": 3833,
      "அறவககபபடம": 3834,
      "அறவககபபடடத": 3835,
      "அமரநதர": 3836,
      "பழஙகள": 3837,
      "தணடகளக": 3838,
      "எபபடய": 3839,
      "ததனபட": 3840,
      "களகவம": 3841,
      "ஜரய": 3842,
      "மமபழ": 3843,
      "சடடவரதம": 3844,
      "வளரசசயட": 3845,
      "ஆடய": 3846,
      "பஙகதரர": 3847,
      "கவனதத": 3848,
      "நறததமற": 3849,
      "அதகபடச": 3850,
      "சறயதக": 3851,
      "சகரபபளர": 3852,
      "வஷயமலலவ": 3853,
      "வசரணககக": 3854,
      "அமதப": 3855,
      "அமதயக": 3856,
      "பநதன": 3857,
      "எளய": 3858,
      "கஷன": 3859,
      "பரவயளளத": 3860,
      "வநதளளன": 3861,
      "கமரவ": 3862,
      "எரயம": 3863,
      "வபததககன": 3864,
      "எஙகளடன": 3865,
      "ஆஸகர": 3866,
      "நறறணட": 3867,
      "பனனட": 3868,
      "கணடரககறர": 3869,
      "அடபபடயலன": 3870,
      "பபடடரபபத": 3871,
      "வழததட": 3872,
      "உறபததயளர": 3873,
      "பயரடபபடடளளத": 3874,
      "உறசகமன": 3875,
      "ஆனட": 3876,
      "இதறகடயல": 3877,
      "ஒபபடக": 3878,
      "யளளம": 3879,
      "அதரசசகரமன": 3880,
      "சவலயர": 3881,
      "ஒததழபப": 3882,
      "கலலற": 3883,
      "மழகவரதத": 3884,
      "வடஸஅபப": 3885,
      "மஸலமகள": 3886,
      "சதவதததற": 3887,
      "மஙகஸ": 3888,
      "பரரசர": 3889,
      "ஒனபத": 3890,
      "ஆஸதரலயன": 3891,
      "ஒதககட": 3892,
      "அணநதரநதர": 3893,
      "ஆடமபரம": 3894,
      "தனனரவம": 3895,
      "வயதறகடபடடவர": 3896,
      "ஆஷஷ": 3897,
      "ஊறறவ": 3898,
      "சதநதரமக": 3899,
      "தடஙகயபத": 3900,
      "சவவயககழம": 3901,
      "பழககவழககம": 3902,
      "2020ஆ": 3903,
      "அகரவல": 3904,
      "பணககரரக": 3905,
      "இனபபரககம": 3906,
      "unk": 3907,
      "எமரடஸ": 3908,
      "ஓரனசசரகக": 3909,
      "கறபததல": 3910,
      "மதகலமப": 3911,
      "நமபபபட": 3912,
      "தழறசஙகம": 3913,
      "சதவதததறகம": 3914,
      "8இல": 3915,
      "th": 3916,
      "அநமத": 3917,
      "ஆபம": 3918,
      "உம": 3919,
      "உதட": 3920,
      "எரம": 3921,
      "எகபத": 3922,
      "கபன": 3923,
      "கபபர": 3924,
      "சஞச": 3925,
      "சபபடடர": 3926,
      "ஞசர": 3927,
      "தகள": 3928,
      "நகல": 3929,
      "நளளர": 3930,
      "நககய": 3931,
      "யகககவம": 3932,
      "ரபரட": 3933,
      "றகள": 3934,
      "லகன": 3935,
      "வஙகளம": 3936,
      "ஸகடடர": 3937,
      "ககககடய": 3938,
      "நதளள": 3939,
      "நதனர": 3940,
      "களட": 3941,
      "பரஜ": 3942,
      "பரணம": 3943,
      "பரபரபப": 3944,
      "றறவ": 3945,
      "தரத": 3946,
      "தரசச": 3947,
      "தரடன": 3948,
      "தரககவம": 3949,
      "கரநத": 3950,
      "சயடன": 3951,
      "படவ": 3952,
      "இரவர": 3953,
      "மனபபனம": 3954,
      "கடயம": 3955,
      "கடபபன": 3956,
      "பலவட": 3957,
      "வடகழ": 3958,
      "கறகக": 3959,
      "கறபபடடளளத": 3960,
      "கறயளளர": 3961,
      "அதறகல": 3962,
      "கமபர": 3963,
      "பபடடள": 3964,
      "பபடடவடன": 3965,
      "பனஸ": 3966,
      "கலககட": 3967,
      "தடயம": 3968,
      "தடமறய": 3969,
      "பயநத": 3970,
      "கழபபட": 3971,
      "கழமப": 3972,
      "சசலம": 3973,
      "மறசழறச": 3974,
      "சமநத": 3975,
      "சமததர": 3976,
      "சமககபபட": 3977,
      "சமககவம": 3978,
      "சமஸகர": 3979,
      "உஙகளடன": 3980,
      "மககளககம": 3981,
      "அறஞர": 3982,
      "பணணம": 3983,
      "பணபரய": 3984,
      "சனஸ": 3985,
      "தறககவம": 3986,
      "ரநதன": 3987,
      "ரநதல": 3988,
      "வனஸ": 3989,
      "ககபபடடதல": 3990,
      "மலததவ": 3991,
      "பயனளள": 3992,
      "பகமபம": 3993,
      "சசயல": 3994,
      "ஆகஷ": 3995,
      "பபரட": 3996,
      "தரவககபபடடளளத": 3997,
      "தரவககவலல": 3998,
      "கரமவச": 3999,
      "கழநதகளககன": 4000,
      "பசவம": 4001,
      "டரப": 4002,
      "டரகக": 4003,
      "ககறன": 4004,
      "ககறபப": 4005,
      "ஆரஎஸ": 4006,
      "வடடரம": 4007,
      "எதரமறயக": 4008,
      "அதகரதத": 4009,
      "வரததம": 4010,
      "தவரபபதறகக": 4011,
      "சதகம": 4012,
      "ஹரன": 4013,
      "பரடகளடன": 4014,
      "வககவலல": 4015,
      "வவரஙகளயம": 4016,
      "கலமபய": 4017,
      "மககல": 4018,
      "தழவல": 4019,
      "யடனம": 4020,
      "பழபப": 4021,
      "பழதத": 4022,
      "எலச": 4023,
      "பளய": 4024,
      "தளபடட": 4025,
      "சடககவம": 4026,
      "இயலம": 4027,
      "இயநதர": 4028,
      "மனனகக": 4029,
      "உணமயன": 4030,
      "கணடபடபப": 4031,
      "பனறவர": 4032,
      "நணபன": 4033,
      "கவயம": 4034,
      "ஆதரஙகளனபட": 4035,
      "சகரபப": 4036,
      "சகரககவம": 4037,
      "நமபககய": 4038,
      "அறகககளனபட": 4039,
      "வரரகளம": 4040,
      "ஆணற": 4041,
      "பனபறறபபட": 4042,
      "பஸடர": 4043,
      "ஏறபடதததல": 4044,
      "தணசசல": 4045,
      "உறதசய": 4046,
      "யறறம": 4047,
      "வதகவம": 4048,
      "நடவடககயம": 4049,
      "உறபபனரக": 4050,
      "வநதவர": 4051,
      "கறபபடபபடடளளத": 4052,
      "கறபபடபபடடளள": 4053,
      "ஓடப": 4054,
      "கமரககள": 4055,
      "வததயம": 4056,
      "வததளளனர": 4057,
      "வளயடடளளத": 4058,
      "சழறற": 4059,
      "வததரககறர": 4060,
      "நடடபப": 4061,
      "தரபபனர": 4062,
      "மதலவரக": 4063,
      "எனறலம": 4064,
      "வபததககளள": 4065,
      "ஜடல": 4066,
      "கடமபததடன": 4067,
      "வலமதபப": 4068,
      "இளஞன": 4069,
      "சநதரயன": 4070,
      "மணடல": 4071,
      "பரகசமன": 4072,
      "ஆயவகம": 4073,
      "கரணஙகளககக": 4074,
      "படயனர": 4075,
      "அலகபத": 4076,
      "ஏறபடடளளத": 4077,
      "பதபபபபகளககக": 4078,
      "கரநடக": 4079,
      "மகளகள": 4080,
      "கணடடடம": 4081,
      "தரமணமக": 4082,
      "சவரஸயமனத": 4083,
      "தரதரஷடம": 4084,
      "வளபபடயன": 4085,
      "சமனய": 4086,
      "ஏடஎம": 4087,
      "நசககபபட": 4088,
      "தயலகரர": 4089,
      "கவரசச": 4090,
      "ஷலப": 4091,
      "கறபழபபளர": 4092,
      "இயலப": 4093,
      "ஆரமபக": 4094,
      "தறநதவள": 4095,
      "அறவறததல": 4096,
      "சயதரநதர": 4097,
      "இலலயன": 4098,
      "பனரஜ": 4099,
      "தளரதத": 4100,
      "சமபயனஷபப": 4101,
      "தலககவசம": 4102,
      "அவதபபடகறர": 4103,
      "உததரவடடளளத": 4104,
      "இயறகயகவ": 4105,
      "தஜமஹல": 4106,
      "கலநதரயட": 4107,
      "நளளரவ": 4108,
      "கடபபனவ": 4109,
      "வடகழனக": 4110,
      "சமஸகரதம": 4111,
      "100": 4112,
      "500": 4113,
      "ag": 4114,
      "ai": 4115,
      "bt": 4116,
      "er": 4117,
      "oo": 4118,
      "sh": 4119,
      "tt": 4120,
      "அந": 4121,
      "அனர": 4122,
      "அககற": 4123,
      "அதலரநத": 4124,
      "இதத": 4125,
      "இமயம": 4126,
      "உததம": 4127,
      "ஏஎஸ": 4128,
      "ஒய": 4129,
      "கமன": 4130,
      "கவக": 4131,
      "கசன": 4132,
      "கததம": 4133,
      "சஃ": 4134,
      "சபட": 4135,
      "சவள": 4136,
      "சககம": 4137,
      "சமத": 4138,
      "ஜமஸ": 4139,
      "டககன": 4140,
      "டகஸ": 4141,
      "டகழம": 4142,
      "நயலரநத": 4143,
      "நஜரய": 4144,
      "பமன": 4145,
      "பசர": 4146,
      "மககம": 4147,
      "மஹர": 4148,
      "யய": 4149,
      "ரமர": 4150,
      "ரகண": 4151,
      "ரபபர": 4152,
      "றர": 4153,
      "லப": 4154,
      "லணட": 4155,
      "லலம": 4156,
      "வகரம": 4157,
      "ஷவர": 4158,
      "ஸவத": 4159,
      "ஸமத": 4160,
      "நதஷ": 4161,
      "நதததற": 4162,
      "டடன": 4163,
      "களமண": 4164,
      "பரமத": 4165,
      "பரவரதத": 4166,
      "பரமதம": 4167,
      "பரகஷ": 4168,
      "பரசரயர": 4169,
      "றறல": 4170,
      "றறவர": 4171,
      "அவரல": 4172,
      "அவரககக": 4173,
      "கரகம": 4174,
      "படஙகள": 4175,
      "படபபடட": 4176,
      "படஙகளயம": 4177,
      "இரவம": 4178,
      "எனஏ": 4179,
      "எனஜ": 4180,
      "எனபவர": 4181,
      "மனபட": 4182,
      "மனசர": 4183,
      "மனமர": 4184,
      "தனபம": 4185,
      "கடககம": 4186,
      "கடசயம": 4187,
      "கடமகன": 4188,
      "வமசவள": 4189,
      "சரண": 4190,
      "மகனம": 4191,
      "வடககபபடடளளத": 4192,
      "வடததளளத": 4193,
      "கறள": 4194,
      "வளநடட": 4195,
      "தலதத": 4196,
      "தலலம": 4197,
      "உளவயல": 4198,
      "மரய": 4199,
      "மரகம": 4200,
      "பறமற": 4201,
      "மடபபடடரககம": 4202,
      "வதவ": 4203,
      "வதகத": 4204,
      "வழசசயட": 4205,
      "பனககடட": 4206,
      "கலபன": 4207,
      "கலவய": 4208,
      "கலவரல": 4209,
      "தடமற": 4210,
      "பயய": 4211,
      "கழத": 4212,
      "நரஜ": 4213,
      "பபதம": 4214,
      "மறல": 4215,
      "மறபரவ": 4216,
      "மறததளளத": 4217,
      "மறகளள": 4218,
      "மதயம": 4219,
      "மதவக": 4220,
      "மதவன": 4221,
      "கடடவலல": 4222,
      "படடச": 4223,
      "படடயளர": 4224,
      "அரயற": 4225,
      "அரனப": 4226,
      "கணற": 4227,
      "கணகள": 4228,
      "பணபடதத": 4229,
      "படததளளனர": 4230,
      "அடககபபட": 4231,
      "வறகக": 4232,
      "வறபப": 4233,
      "மலன": 4234,
      "மலயம": 4235,
      "மலவனம": 4236,
      "நலககர": 4237,
      "பகச": 4238,
      "பகவம": 4239,
      "மனறல": 4240,
      "பததணர": 4241,
      "சகசம": 4242,
      "மணபழ": 4243,
      "பசண": 4244,
      "சநதஷ": 4245,
      "ஆணடம": 4246,
      "கனமன": 4247,
      "கனஸட": 4248,
      "கனடவ": 4249,
      "கயபப": 4250,
      "ஆரம": 4251,
      "வடடல": 4252,
      "வடடதல": 4253,
      "பயரடட": 4254,
      "எதரகண": 4255,
      "அணவத": 4256,
      "ததயளளனர": 4257,
      "சயலழ": 4258,
      "ஜனன": 4259,
      "உடநத": 4260,
      "இடயற": 4261,
      "இனடர": 4262,
      "இனஸப": 4263,
      "ககரன": 4264,
      "அளவடவம": 4265,
      "ஒனறயம": 4266,
      "ஒனறமலல": 4267,
      "பரதபல": 4268,
      "வணஙக": 4269,
      "தயபபல": 4270,
      "இணககபபடடளளன": 4271,
      "அறவததளளர": 4272,
      "பழவக": 4273,
      "சறறலம": 4274,
      "லரநதம": 4275,
      "மமம": 4276,
      "மமயர": 4277,
      "நடததளளர": 4278,
      "அதனபன": 4279,
      "களகப": 4280,
      "மனனககவம": 4281,
      "லடக": 4282,
      "சடடததனபட": 4283,
      "உணமதன": 4284,
      "ஒவவரவரம": 4285,
      "ரமங": 4286,
      "உடலநலம": 4287,
      "சககய": 4288,
      "கவனககற": 4289,
      "பககடட": 4290,
      "தஙகடகழம": 4291,
      "நறததபபடம": 4292,
      "தவறம": 4293,
      "மணவரகளம": 4294,
      "சலததபபட": 4295,
      "பனபறறவம": 4296,
      "சயயபபடடதக": 4297,
      "வகபபவதம": 4298,
      "உடனய": 4299,
      "கததனர": 4300,
      "மனவயம": 4301,
      "பநதயம": 4302,
      "வளளககழம": 4303,
      "வநதளளத": 4304,
      "வநதவடன": 4305,
      "கததரபப": 4306,
      "ஹலபலன": 4307,
      "அதரசசயம": 4308,
      "வததரநதர": 4309,
      "பதலளககவலல": 4310,
      "அபபற": 4311,
      "கவலதறயம": 4312,
      "இறநததக": 4313,
      "கவட19ஐ": 4314,
      "சனறதக": 4315,
      "பஙகளபப": 4316,
      "சகசசககக": 4317,
      "பரசஸத": 4318,
      "ஆறதல": 4319,
      "மறறவரகளடன": 4320,
      "பனனடவ": 4321,
      "கடரய": 4322,
      "ஈடபடதத": 4323,
      "ஆயள": 4324,
      "வரலகயளளன": 4325,
      "உளளடககய": 4326,
      "பரனசல": 4327,
      "தபவள": 4328,
      "ஆரவமளள": 4329,
      "வனறளளத": 4330,
      "ஆயரம": 4331,
      "சமயலகரர": 4332,
      "இரநததக": 4333,
      "உரவககயளளனர": 4334,
      "கடததபபட": 4335,
      "ஆளநரக": 4336,
      "ஏடஎஸ": 4337,
      "மடநதவட": 4338,
      "அவசரகலம": 4339,
      "உதவமற": 4340,
      "ஓயவதயம": 4341,
      "வறறகரமன": 4342,
      "சததயமன": 4343,
      "அறமகபபடதபட": 4344,
      "நடபபயணம": 4345,
      "சநதனயளர": 4346,
      "பரசலன": 4347,
      "அகலமன": 4348,
      "ஊனமறறவர": 4349,
      "ஹதரபத": 4350,
      "வலயனம": 4351,
      "இலலய": 4352,
      "அவதபபடட": 4353,
      "டரனப": 4354,
      "ஓரணட": 4355,
      "அதகரபபரவமக": 4356,
      "வலஙககளம": 4357,
      "ஆஙகலயர": 4358,
      "இரபபதகக": 4359,
      "அறபதமனத": 4360,
      "மலலமடடர": 4361,
      "இஸரலய": 4362,
      "யதரகர": 4363,
      "நலசசரவ": 4364,
      "வபததககளளக": 4365,
      "இமயமல": 4366,
      "பரவரததன": 4367,
      "அரயறத": 4368,
      "0ககம": 4369,
      "2ஆ": 4370,
      "7இல": 4371,
      "ch": 4372,
      "ed": 4373,
      "gu": 4374,
      "gbt": 4375,
      "lgbt": 4376,
      "அப": 4377,
      "அசல": 4378,
      "அலல": 4379,
      "அவச": 4380,
      "அநகம": 4381,
      "அஙகளள": 4382,
      "ஆனம": 4383,
      "ஆயத": 4384,
      "இபர": 4385,
      "ஈபள": 4386,
      "உதய": 4387,
      "ஊகம": 4388,
      "ஒபபடடள": 4389,
      "ஓபன": 4390,
      "கசர": 4391,
      "கயக": 4392,
      "கநதர": 4393,
      "கவணடர": 4394,
      "சவரவ": 4395,
      "ஜஹ": 4396,
      "ஜவன": 4397,
      "ஜஃப": 4398,
      "டபப": 4399,
      "டகடக": 4400,
      "தபய": 4401,
      "தயக": 4402,
      "நமக": 4403,
      "நவல": 4404,
      "நணண": 4405,
      "பங": 4406,
      "பஎஸ": 4407,
      "மதரம": 4408,
      "யயல": 4409,
      "ரசதத": 4410,
      "லவ": 4411,
      "லடட": 4412,
      "வககக": 4413,
      "ஷடட": 4414,
      "ஸவடன": 4415,
      "ஸமரட": 4416,
      "ககயர": 4417,
      "கககம": 4418,
      "பபவ": 4419,
      "வரதன": 4420,
      "நதலம": 4421,
      "தரப": 4422,
      "தரள": 4423,
      "தரயட": 4424,
      "கரகர": 4425,
      "கரபன": 4426,
      "சயவதக": 4427,
      "இரச": 4428,
      "எனஆர": 4429,
      "மனகள": 4430,
      "மனனம": 4431,
      "மனதக": 4432,
      "வமசம": 4433,
      "பதசர": 4434,
      "பதடடமக": 4435,
      "பதசசயல": 4436,
      "சலவழ": 4437,
      "சலவகக": 4438,
      "சரமன": 4439,
      "சரபரபப": 4440,
      "சரசயயவம": 4441,
      "மகல": 4442,
      "பலப": 4443,
      "பலய": 4444,
      "பலபபடதத": 4445,
      "வலன": 4446,
      "வலஸ": 4447,
      "வளககபபட": 4448,
      "வளரநத": 4449,
      "நடகளம": 4450,
      "நடககவலல": 4451,
      "நடஃபகஸ": 4452,
      "அதய": 4453,
      "அதறகக": 4454,
      "மரமம": 4455,
      "பறதல": 4456,
      "பறவதறகன": 4457,
      "மடபப": 4458,
      "மடபன": 4459,
      "மடகபபட": 4460,
      "வழபட": 4461,
      "வழசச": 4462,
      "பபடடதல": 4463,
      "பனமக": 4464,
      "பனபறம": 4465,
      "கலந": 4466,
      "கலலம": 4467,
      "தடல": 4468,
      "தடசய": 4469,
      "தடகளம": 4470,
      "தடயட": 4471,
      "தடமனன": 4472,
      "மறயம": 4473,
      "மறசரம": 4474,
      "மதக": 4475,
      "மதபன": 4476,
      "சமஸ": 4477,
      "நறகறர": 4478,
      "இலடசம": 4479,
      "தவய": 4480,
      "யலர": 4481,
      "வணடமன": 4482,
      "மககளடமரநத": 4483,
      "டமஸ": 4484,
      "டமடட": 4485,
      "கணப": 4486,
      "கணபர": 4487,
      "கணறற": 4488,
      "கணதம": 4489,
      "பணடட": 4490,
      "படததவர": 4491,
      "சனத": 4492,
      "சனவலரநத": 4493,
      "தறககபபட": 4494,
      "வனகடம": 4495,
      "வறடச": 4496,
      "மலசய": 4497,
      "மலபபர": 4498,
      "மலயற": 4499,
      "நதரபபத": 4500,
      "உரயறற": 4501,
      "வழஙகபபடடளளன": 4502,
      "அமககவம": 4503,
      "அமககபபடடளளன": 4504,
      "தடரபம": 4505,
      "நயட": 4506,
      "வசகக": 4507,
      "வசககறர": 4508,
      "பசஙக": 4509,
      "கபபபட": 4510,
      "வடடமடவம": 4511,
      "எடககபபடவலல": 4512,
      "எடயரபப": 4513,
      "அணநத": 4514,
      "அணகமற": 4515,
      "தடஙகயம": 4516,
      "தடஙகபபடடளளத": 4517,
      "அதகரயக": 4518,
      "உடனர": 4519,
      "வரததமம": 4520,
      "வரததகளடன": 4521,
      "இனவற": 4522,
      "அளததளளனர": 4523,
      "அலறல": 4524,
      "அனவரலம": 4525,
      "ஒனறம": 4526,
      "சயயககடய": 4527,
      "பரமணம": 4528,
      "பகதகளலம": 4529,
      "தயகக": 4530,
      "ஹரஸ": 4531,
      "ஹரதக": 4532,
      "தயரககபபடம": 4533,
      "பளளவவர": 4534,
      "கவலபபடவலல": 4535,
      "பழதபக": 4536,
      "ஸடணட": 4537,
      "தலவரம": 4538,
      "பளபள": 4539,
      "தளஙகள": 4540,
      "சடஸ": 4541,
      "சடகம": 4542,
      "வஷலட": 4543,
      "சடடயளளர": 4544,
      "உணமய": 4545,
      "வளரபப": 4546,
      "ரஜநத": 4547,
      "ரமநத": 4548,
      "நறததபபடட": 4549,
      "அஙகத": 4550,
      "கவநத": 4551,
      "சகரவரதத": 4552,
      "ரஷயவ": 4553,
      "ஆலய": 4554,
      "பஜஜய": 4555,
      "பஸகடட": 4556,
      "வயதககட": 4557,
      "அனபபயளளத": 4558,
      "அதரசசயடநதளளனர": 4559,
      "கததயம": 4560,
      "மரததவரடம": 4561,
      "பரததமறற": 4562,
      "அடதததக": 4563,
      "நணபரகளக": 4564,
      "சதரஙக": 4565,
      "ஜயசஙகர": 4566,
      "தறறநயள": 4567,
      "கமரன": 4568,
      "கததரககறரகள": 4569,
      "நடடககபபடடளளத": 4570,
      "நககமக": 4571,
      "நககஙகளககக": 4572,
      "தறபதயம": 4573,
      "மயடன": 4574,
      "ஏரவஸ": 4575,
      "நளமளள": 4576,
      "அபபடயன": 4577,
      "பறறரடன": 4578,
      "தனனநதய": 4579,
      "களரசச": 4580,
      "னஸக": 4581,
      "கணடரககலம": 4582,
      "ஆளக": 4583,
      "சணடகர": 4584,
      "மதரயன": 4585,
      "தறமயனவர": 4586,
      "நதயள": 4587,
      "வசததரமக": 4588,
      "நதரநதல": 4589,
      "பபடடரககலம": 4590,
      "அணகனர": 4591,
      "வகயலம": 4592,
      "உளளடவம": 4593,
      "ஸடரஸ": 4594,
      "கதலன": 4595,
      "பதரயர": 4596,
      "ஒலபரபப": 4597,
      "ஒலபரகக": 4598,
      "வணணபபதரர": 4599,
      "சவரஸயமக": 4600,
      "வயபபளளத": 4601,
      "ஒததழ": 4602,
      "இரநததலல": 4603,
      "ஆதரமம": 4604,
      "உரவககதல": 4605,
      "வரடநதர": 4606,
      "கலலடட": 4607,
      "பளஸடகக": 4608,
      "மடநததம": 4609,
      "பததசலததனமன": 4610,
      "அதகரமள": 4611,
      "ஙககளம": 4612,
      "தடடமடடளளனர": 4613,
      "வழவகததளளத": 4614,
      "உயரனஙகளம": 4615,
      "நயசலந": 4616,
      "மனமழவ": 4617,
      "அஙககரககபபட": 4618,
      "சயதரககறரகள": 4619,
      "சநதகததற": 4620,
      "ஊனமறற": 4621,
      "ரஹமன": 4622,
      "சதவதமக": 4623,
      "அரசஙகததடன": 4624,
      "பரவமழ": 4625,
      "கடகவலல": 4626,
      "ஒதககபபடடளளத": 4627,
      "சததயமலல": 4628,
      "தமதமக": 4629,
      "கறஸதமஸ": 4630,
      "எனஐஏ": 4631,
      "நரததயக": 4632,
      "வடகடடதல": 4633,
      "வஜஜ": 4634,
      "பரழவற": 4635,
      "பதவடடளளர": 4636,
      "கரதபபடகற": 4637,
      "ஹஷடகக": 4638,
      "கடடளரடன": 4639,
      "ஊடடமசம": 4640,
      "ஹடஸடர": 4641,
      "கடடயபபடதத": 4642,
      "தனனநதயல": 4643,
      "வழததடஙகள": 4644,
      "அநமதயம": 4645,
      "சநதரயன2": 4646,
      "கனஸடபள": 4647,
      "lgbtq": 4648,
      "பதசசயலளர": 4649,
      "100ககம": 4650,
      "25": 4651,
      "am": 4652,
      "es": 4653,
      "gn": 4654,
      "ign": 4655,
      "lan": 4656,
      "ஃபய": 4657,
      "அகக": 4658,
      "அமன": 4659,
      "அசர": 4660,
      "அபஜ": 4661,
      "அகரத": 4662,
      "அபயம": 4663,
      "அஃபத": 4664,
      "ஆகரஷ": 4665,
      "ஊடட": 4666,
      "ஊஞசல": 4667,
      "ஏககர": 4668,
      "ஐக": 4669,
      "ஐஜ": 4670,
      "ஐய": 4671,
      "ஐஎன": 4672,
      "ஐஎமட": 4673,
      "ஓடன": 4674,
      "கசநத": 4675,
      "கவஷலட": 4676,
      "ஙஸ": 4677,
      "சலம": 4678,
      "சபய": 4679,
      "சததன": 4680,
      "ஜவத": 4681,
      "ஜஹர": 4682,
      "டவன": 4683,
      "டஃப": 4684,
      "தஜ": 4685,
      "தவத": 4686,
      "நயர": 4687,
      "நயன": 4688,
      "நவனம": 4689,
      "நபள": 4690,
      "நபநதன": 4691,
      "பவணட": 4692,
      "பஜன": 4693,
      "மஜன": 4694,
      "மயனற": 4695,
      "யவடன": 4696,
      "ரஞச": 4697,
      "ரஃப": 4698,
      "ரசகக": 4699,
      "ரபஸ": 4700,
      "ரனலட": 4701,
      "வபபத": 4702,
      "வககபபடடளளத": 4703,
      "ஷலல": 4704,
      "ஸவ": 4705,
      "ஸலம": 4706,
      "ஹஜ": 4707,
      "ஹஸ": 4708,
      "ஹஹ": 4709,
      "ஹபப": 4710,
      "ஹடட": 4711,
      "ஹலட": 4712,
      "ககனற": 4713,
      "பபழ": 4714,
      "பபதல": 4715,
      "வரகக": 4716,
      "வரதட": 4717,
      "வரவற": 4718,
      "வரகளம": 4719,
      "வரஙகளக": 4720,
      "தததவ": 4721,
      "களஸ": 4722,
      "களமப": 4723,
      "களமதல": 4724,
      "பரடர": 4725,
      "தரவன": 4726,
      "கரஜ": 4727,
      "கரசல": 4728,
      "கரபபம": 4729,
      "கரவதத": 4730,
      "கரபபரள": 4731,
      "படககபபட": 4732,
      "இரசசயம": 4733,
      "இரநதரககலம": 4734,
      "தனத": 4735,
      "தனகக": 4736,
      "ளளதல": 4737,
      "கடபத": 4738,
      "கடநர": 4739,
      "கடததர": 4740,
      "இநதன": 4741,
      "ஙகளககள": 4742,
      "பதகககவம": 4743,
      "சலபபட": 4744,
      "சலசலபப": 4745,
      "சலலமற": 4746,
      "சரல": 4747,
      "சரசயய": 4748,
      "சரதரததம": 4749,
      "மகததன": 4750,
      "மகசசற": 4751,
      "பலவள": 4752,
      "வலககடட": 4753,
      "வலவயபப": 4754,
      "இதய": 4755,
      "வடமறக": 4756,
      "கறககபபட": 4757,
      "கறகய": 4758,
      "கறககபபடடளளன": 4759,
      "யமஸ": 4760,
      "யரப": 4761,
      "யரலம": 4762,
      "தலஙக": 4763,
      "தலகழ": 4764,
      "நடல": 4765,
      "உளவ": 4766,
      "உளகடடமபப": 4767,
      "மரபண": 4768,
      "பறவதறகக": 4769,
      "வதஷ": 4770,
      "வதமக": 4771,
      "வதககபபடடளளத": 4772,
      "கமணட": 4773,
      "பனபற": 4774,
      "பனதக": 4775,
      "கலவடட": 4776,
      "கழயம": 4777,
      "நனககலம": 4778,
      "கதயயம": 4779,
      "அனஷக": 4780,
      "மறவடட": 4781,
      "கடடவரல": 4782,
      "கடடககணட": 4783,
      "சமதன": 4784,
      "படடயக": 4785,
      "அரபப": 4786,
      "வகவம": 4787,
      "வகயன": 4788,
      "வகபபடதத": 4789,
      "கணடவ": 4790,
      "கணடனம": 4791,
      "தவயறற": 4792,
      "டனயல": 4793,
      "தறமக": 4794,
      "அடயவலல": 4795,
      "மழஙக": 4796,
      "வளயன": 4797,
      "வனவ": 4798,
      "வனஷ": 4799,
      "வனவர": 4800,
      "வனவல": 4801,
      "வறபபட": 4802,
      "மலபபரள": 4803,
      "நலயன": 4804,
      "அழககபபடடன": 4805,
      "அரசவ": 4806,
      "அரசதம": 4807,
      "நதரலநத": 4808,
      "பகபப": 4809,
      "சசயளர": 4810,
      "உரதத": 4811,
      "உரணட": 4812,
      "வழஙகமற": 4813,
      "வழஙகயளளனர": 4814,
      "அமககபபடம": 4815,
      "அமததல": 4816,
      "நயய": 4817,
      "பததய": 4818,
      "கழநதயடன": 4819,
      "மணஷ": 4820,
      "நமமல": 4821,
      "பசஆர": 4822,
      "பயனபடததபபடடன": 4823,
      "சநதப": 4824,
      "டரல": 4825,
      "எழநதர": 4826,
      "கனனம": 4827,
      "உயரடன": 4828,
      "பயரல": 4829,
      "எடககபபடடளளத": 4830,
      "எடததளளத": 4831,
      "உதவகறர": 4832,
      "அவவபபத": 4833,
      "சயலக": 4834,
      "இடஒதககட": 4835,
      "ககரவ": 4836,
      "அலடசயம": 4837,
      "அனவரம": 4838,
      "நலமடன": 4839,
      "உலர": 4840,
      "உலரதத": 4841,
      "பரமமணட": 4842,
      "சமபநத": 4843,
      "வஙகய": 4844,
      "வஙகபபட": 4845,
      "ஹரத": 4846,
      "நரமம": 4847,
      "வககய": 4848,
      "தயரககபபடகறத": 4849,
      "பளளகளடன": 4850,
      "பரயதக": 4851,
      "பகரபபட": 4852,
      "பகரநதளளர": 4853,
      "மககயதத": 4854,
      "மடடட": 4855,
      "மடடபபடதத": 4856,
      "அமரத": 4857,
      "அமரககவம": 4858,
      "யடயப": 4859,
      "கடமபமம": 4860,
      "பளவ": 4861,
      "ததனமக": 4862,
      "தளஙக": 4863,
      "கடசபபடதத": 4864,
      "இயககய": 4865,
      "வஷண": 4866,
      "லடகக": 4867,
      "ஃபஷன": 4868,
      "பரநதய": 4869,
      "கணடபடககவம": 4870,
      "கணடபடககவலல": 4871,
      "அரசஙகமம": 4872,
      "ஒவவரவரககம": 4873,
      "தனமபபடதபட": 4874,
      "ஆடசயர": 4875,
      "தஙகயரநத": 4876,
      "தஙகயரநதர": 4877,
      "நமபவலல": 4878,
      "மஸஸ": 4879,
      "ஆசரயரகளம": 4880,
      "ஆணகளககம": 4881,
      "பனபறறவலல": 4882,
      "வடயவயம": 4883,
      "எலலரககம": 4884,
      "டடரஸ": 4885,
      "மததவர": 4886,
      "அளவகல": 4887,
      "ரனத": 4888,
      "ரனவம": 4889,
      "லயஸ": 4890,
      "லயனர": 4891,
      "மறறரவர": 4892,
      "மகழசசயகவம": 4893,
      "கஷல": 4894,
      "உறபபனரகளம": 4895,
      "சபகள": 4896,
      "ஓடவ": 4897,
      "கததரககய": 4898,
      "வளககககடச": 4899,
      "நடடஸ": 4900,
      "பரடடககரர": 4901,
      "ஜமமன": 4902,
      "மயஙக": 4903,
      "சனறள": 4904,
      "சனறவட": 4905,
      "கழவநர": 4906,
      "பயஙகரவதக": 4907,
      "பரசவம": 4908,
      "கபபறறபபட": 4909,
      "மறறவரகளம": 4910,
      "சநதரசகர": 4911,
      "ஆபததனத": 4912,
      "அகறறபபட": 4913,
      "ஏழவத": 4914,
      "படபபறறல": 4915,
      "பரபலமனவர": 4916,
      "இஸல": 4917,
      "கழபபமன": 4918,
      "நரமபயளளத": 4919,
      "சமகததனர": 4920,
      "பரமரககவம": 4921,
      "பரமரபபளர": 4922,
      "வரநதத": 4923,
      "தரதரஷடவச": 4924,
      "யசககறர": 4925,
      "வளரசசககக": 4926,
      "மதலமசசரக": 4927,
      "கயழததட": 4928,
      "தடடமடடளளர": 4929,
      "அவசரநல": 4930,
      "ஆறறல": 4931,
      "கவரவம": 4932,
      "சததயககற": 4933,
      "வடயககளயம": 4934,
      "மடடளதன": 4935,
      "அழததவம": 4936,
      "சயயமப": 4937,
      "கஷமரல": 4938,
      "பலடககடட": 4939,
      "கணணயம": 4940,
      "ரவநதர": 4941,
      "அவமதபப": 4942,
      "கவலதறயனரககம": 4943,
      "தனததனயக": 4944,
      "பஞசயம": 4945,
      "பஞசயதத": 4946,
      "யபஐ": 4947,
      "சஹப": 4948,
      "சமபயனஷ": 4949,
      "சடடவரதமனத": 4950,
      "தமதபபடதத": 4951,
      "இபபததன": 4952,
      "ஆததயநத": 4953,
      "மநலஙகளம": 4954,
      "மலயததம": 4955,
      "மதலடடளர": 4956,
      "எவரஸட": 4957,
      "ரபனசன": 4958,
      "வபசசரம": 4959,
      "தறகலகமக": 4960,
      "தசயவதம": 4961,
      "பதவறககம": 4962,
      "நயயரக": 4963,
      "பலமபயரநத": 4964,
      "கரபபனபசச": 4965,
      "ஏரளமன": 4966,
      "10ஆ": 4967,
      "அகமதநகர": 4968,
      "ஆரடபசஆர": 4969,
      "டணடலகர": 4970,
      "பலஸதனயர": 4971,
      "சதகமக": 4972,
      "பஜரங": 4973,
      "பஷனய": 4974,
      "களயலற": 4975,
      "அபதலல": 4976,
      "இலலதவர": 4977,
      "கடவசசட": 4978,
      "சறசறபபக": 4979,
      "age": 4980,
      "கவகசன": 4981,
      "கததமலல": 4982,
      "தலததடரப": 4983,
      "இனஸபகடர": 4984,
      "இபரஹம": 4985,
      "சமஸகரத": 4986,
      "வணடமனலம": 4987,
      "பரழவறகளள": 4988,
      "21": 4989,
      "200": 4990,
      "30": 4991,
      "3ஆ": 4992,
      "as": 4993,
      "bo": 4994,
      "ste": 4995,
      "sign": 4996,
      "ஃபலட": 4997,
      "அகன": 4998,
      "அகடம": 4999,
      "ஆஃ": 5000,
      "ஆவல": 5001,
      "ஆதல": 5002,
      "ஆசத": 5003,
      "ஆழதத": 5004,
      "இசயம": 5005,
      "இமசச": 5006,
      "உன": 5007,
      "உநத": 5008,
      "ஊறவ": 5009,
      "ஊடரவ": 5010,
      "ஏநதய": 5011,
      "ஒததர": 5012,
      "கஜ": 5013,
      "கசய": 5014,
      "கசக": 5015,
      "சடர": 5016,
      "ஜஎஸ": 5017,
      "ஞசவபப": 5018,
      "டவஷ": 5019,
      "டபஸ": 5020,
      "டஎனஏ": 5021,
      "தங": 5022,
      "தகம": 5023,
      "தசதர": 5024,
      "தவகன": 5025,
      "பகடரய": 5026,
      "மஹம": 5027,
      "மநகரடச": 5028,
      "யஙகள": 5029,
      "ரசர": 5030,
      "ரபபன": 5031,
      "ரககறரகள": 5032,
      "ரமனய": 5033,
      "லஞசம": 5034,
      "ழககம": 5035,
      "வநட": 5036,
      "வவறற": 5037,
      "ஷபஸ": 5038,
      "ஸபயன": 5039,
      "ஸதப": 5040,
      "ஸமரத": 5041,
      "ஹச": 5042,
      "ஹதத": 5043,
      "ஹவய": 5044,
      "ஹககர": 5045,
      "கககர": 5046,
      "பபஎஸ": 5047,
      "வரவட": 5048,
      "வரஙகன": 5049,
      "டடவ": 5050,
      "டடடன": 5051,
      "பரதல": 5052,
      "பரஹர": 5053,
      "பரககவலல": 5054,
      "பரநறததம": 5055,
      "அவரகளககம": 5056,
      "அவரகளககக": 5057,
      "தரநல": 5058,
      "தரளம": 5059,
      "தரயவ": 5060,
      "கரமப": 5061,
      "கரககம": 5062,
      "கரககள": 5063,
      "கரமத": 5064,
      "கரதவர": 5065,
      "கரயளளத": 5066,
      "கரயளளனர": 5067,
      "சயவதறகக": 5068,
      "சயததறகக": 5069,
      "படர": 5070,
      "படகல": 5071,
      "இரககவம": 5072,
      "இரககலம": 5073,
      "இரநதரககம": 5074,
      "எனஏட": 5075,
      "மனட": 5076,
      "மனநலம": 5077,
      "தனயக": 5078,
      "கடககலம": 5079,
      "லமடட": 5080,
      "பதசசர": 5081,
      "பதறறம": 5082,
      "சரலஸ": 5083,
      "பலயன": 5084,
      "பலகன": 5085,
      "பலலயனர": 5086,
      "வடபபட": 5087,
      "வடமரநத": 5088,
      "கறககள": 5089,
      "யரடன": 5090,
      "அதறகன": 5091,
      "மரயம": 5092,
      "பறமம": 5093,
      "மடததவடன": 5094,
      "வழததர": 5095,
      "வழயலல": 5096,
      "வழபபடன": 5097,
      "கமத": 5098,
      "பனட": 5099,
      "பனவல": 5100,
      "பனனம": 5101,
      "கலபப": 5102,
      "கலவத": 5103,
      "கலஸதன": 5104,
      "கலபரன": 5105,
      "நனச": 5106,
      "நனவக": 5107,
      "கதயம": 5108,
      "ககளடன": 5109,
      "நரல": 5110,
      "நரஷ": 5111,
      "நரபர": 5112,
      "நரடயக": 5113,
      "நரழவ": 5114,
      "அனபடன": 5115,
      "மறககபபட": 5116,
      "மறபவர": 5117,
      "மறபரசலன": 5118,
      "மதமறற": 5119,
      "மதகல": 5120,
      "கடடக": 5121,
      "சமல": 5122,
      "படடயலம": 5123,
      "நறஙக": 5124,
      "இலககம": 5125,
      "இநதயவலரநத": 5126,
      "கணடதர": 5127,
      "கணடதக": 5128,
      "தவண": 5129,
      "கணக": 5130,
      "கணபப": 5131,
      "கணககன": 5132,
      "படததயம": 5133,
      "சறபம": 5134,
      "சறபபம": 5135,
      "தறமகம": 5136,
      "தறககபபடம": 5137,
      "படமபட": 5138,
      "வயப": 5139,
      "ககபபடகறரகள": 5140,
      "அடககம": 5141,
      "அடககவம": 5142,
      "ரநதனர": 5143,
      "வறறல": 5144,
      "மலமற": 5145,
      "ளரம": 5146,
      "ககபபடடவடன": 5147,
      "அவளடன": 5148,
      "பகலம": 5149,
      "பகவன": 5150,
      "னறல": 5151,
      "ஆகசட": 5152,
      "அமநதளள": 5153,
      "இரணடயம": 5154,
      "தடரல": 5155,
      "பததன": 5156,
      "சகஸர": 5157,
      "உறஞச": 5158,
      "மணககணகக": 5159,
      "பசவலல": 5160,
      "ஆணடகளககம": 5161,
      "டரஸ": 5162,
      "உயரதர": 5163,
      "ககறக": 5164,
      "ஆரஆர": 5165,
      "வரமபவதகக": 5166,
      "பயரகளயம": 5167,
      "அணநதர": 5168,
      "உதவய": 5169,
      "உதவவதக": 5170,
      "உதவககறபப": 5171,
      "தடஙகபபடம": 5172,
      "ஜனச": 5173,
      "ஜனத": 5174,
      "வரததகளயம": 5175,
      "இடஙகளலரநத": 5176,
      "தவரவத": 5177,
      "தவரஙகளம": 5178,
      "அளககபபடடளளத": 5179,
      "சதவக": 5180,
      "சவததறன": 5181,
      "அனததறகம": 5182,
      "உலகறக": 5183,
      "பரதசமக": 5184,
      "பரமம": 5185,
      "பரமபலர": 5186,
      "பகதகளம": 5187,
      "தயடன": 5188,
      "பகரவம": 5189,
      "பகரபபடடத": 5190,
      "தழலமற": 5191,
      "இணகக": 5192,
      "இணநத": 5193,
      "ஏனனறல": 5194,
      "அமரககர": 5195,
      "பழயன": 5196,
      "தககவ": 5197,
      "ஒரவரக": 5198,
      "நகரவ": 5199,
      "நகரததவம": 5200,
      "எழதபபட": 5201,
      "எழதபபடடளளன": 5202,
      "பளகக": 5203,
      "கடசகளம": 5204,
      "சமகமயம": 5205,
      "வஷம": 5206,
      "எமஐ": 5207,
      "பரநதககடய": 5208,
      "கணடபடககபபடவலல": 5209,
      "உடலறவ": 5210,
      "கவனசல": 5211,
      "பககததலரநத": 5212,
      "நணபரம": 5213,
      "அஙகதன": 5214,
      "கவஹதத": 5215,
      "தவறமல": 5216,
      "ரஷத": 5217,
      "மனதவளம": 5218,
      "பணமசட": 5219,
      "அமசசரம": 5220,
      "ஆலபம": 5221,
      "இழநத": 5222,
      "நனறகம": 5223,
      "சததகரபப": 5224,
      "ஆணகளம": 5225,
      "நரபபதல": 5226,
      "நரபபபபடட": 5227,
      "நரபபசனம": 5228,
      "பசசளர": 5229,
      "தழலதற": 5230,
      "வகபபககன": 5231,
      "அனபபபப": 5232,
      "மதததற": 5233,
      "தகவலதடரப": 5234,
      "எனனவனற": 5235,
      "அமதயன": 5236,
      "பரதததலல": 5237,
      "அடததளம": 5238,
      "அடததளளர": 5239,
      "கபமக": 5240,
      "எளத": 5241,
      "ஜயஷ": 5242,
      "ஊழயரகளம": 5243,
      "தறறமள": 5244,
      "வநதளளனர": 5245,
      "கததரககல": 5246,
      "வததககள": 5247,
      "அதரசசயடடம": 5248,
      "மகழசசயடவதக": 5249,
      "எரககபபட": 5250,
      "எரமல": 5251,
      "களளமற": 5252,
      "வளயறமற": 5253,
      "சஙகடம": 5254,
      "ரகசய": 5255,
      "மயகக": 5256,
      "மயககமட": 5257,
      "கயலககள": 5258,
      "மசதவ": 5259,
      "சகதரயம": 5260,
      "ஏறறககணட": 5261,
      "தனனடன": 5262,
      "டஸசரஜ": 5263,
      "களரசதன": 5264,
      "ஊககவதத": 5265,
      "மழமயட": 5266,
      "இளஞசவபப": 5267,
      "எலமபககடட": 5268,
      "தசபதம": 5269,
      "மணடபம": 5270,
      "ஜலனஸக": 5271,
      "பரததரபபர": 5272,
      "பணயறறயளளர": 5273,
      "வவதயஙகள": 5274,
      "பணடர": 5275,
      "தறமயன": 5276,
      "சஷம": 5277,
      "பஞசபல": 5278,
      "நதரநதத": 5279,
      "எஃபஎஸ": 5280,
      "ரயடடரஸ": 5281,
      "பரபலஙகளம": 5282,
      "பரனச": 5283,
      "ஆரயசசயளர": 5284,
      "எலமபககட": 5285,
      "களலரநதம": 5286,
      "தவபபடகற": 5287,
      "தததளளத": 5288,
      "சறறலவ": 5289,
      "டகசஸ": 5290,
      "ஹனமன": 5291,
      "நறவனமன": 5292,
      "நறவனஙகளம": 5293,
      "உரவககயளளர": 5294,
      "அவசரபபட": 5295,
      "பமபய": 5296,
      "தனததனற": 5297,
      "கரஷணர": 5298,
      "கனமஙகள": 5299,
      "கறயளளதவத": 5300,
      "மரணபடட": 5301,
      "நரவககக": 5302,
      "அறமகபபட": 5303,
      "ஃபரஙக": 5304,
      "எதரபரககபபடகறத": 5305,
      "எஃக": 5306,
      "எஃபட": 5307,
      "பயமற": 5308,
      "மஙகபகஸ": 5309,
      "உயரனஙகளககம": 5310,
      "எமஎலஏவக": 5311,
      "அரணசசலம": 5312,
      "அழததவட": 5313,
      "ஆசயன": 5314,
      "உனனபபக": 5315,
      "மனசசரவ": 5316,
      "ஙகளலரநதம": 5317,
      "தனமபபடததல": 5318,
      "அசசறதத": 5319,
      "ஆகஸபரட": 5320,
      "ஹதரப": 5321,
      "பஷண": 5322,
      "ஒனப": 5323,
      "கஙஸ": 5324,
      "சகதவயநத": 5325,
      "பணபபண": 5326,
      "ஒவவனறலம": 5327,
      "உபந": 5328,
      "வமரசனம": 5329,
      "ஆழததயளளத": 5330,
      "அதரஷடசல": 5331,
      "இஸலமய": 5332,
      "நரசலன": 5333,
      "ஒடககம": 5334,
      "தகரற": 5335,
      "பயபபடகறர": 5336,
      "இபபதலலம": 5337,
      "இணடஸடரஸ": 5338,
      "படததரககறத": 5339,
      "சனடசர": 5340,
      "பஙகறபளர": 5341,
      "நஷனல": 5342,
      "பயனடவர": 5343,
      "பலமபயரநதர": 5344,
      "சணல": 5345,
      "சரனசன": 5346,
      "மடலயம": 5347,
      "சமஜவட": 5348,
      "சஆரப": 5349,
      "கறறபபததரக": 5350,
      "சஏஏ": 5351,
      "வமலஷ": 5352,
      "மடதரததபவர": 5353,
      "சமததரகபதர": 5354,
      "தணசசலன": 5355,
      "வலமதபபறற": 5356,
      "கவரசசகரமன": 5357,
      "இனடரநஷனல": 5358,
      "guage": 5359,
      "language": 5360,
      "அககமப": 5361,
      "அஃபதப": 5362,
      "தரவனநத": 5363,
      "கரவததகபப": 5364,
      "பகபபயவ": 5365,
      "signlanguage": 5366,
      "இமசசலம": 5367,
      "தசதரபப": 5368,
      "17": 5369,
      "24": 5370,
      "5ஆ": 5371,
      "5ஜ": 5372,
      "5வத": 5373,
      "7ஆ": 5374,
      "அபர": 5375,
      "அயர": 5376,
      "அபய": 5377,
      "அசன": 5378,
      "அபதத": 5379,
      "அபனம": 5380,
      "ஆப": 5381,
      "இம": 5382,
      "இவன": 5383,
      "உஹ": 5384,
      "ஊரம": 5385,
      "எக": 5386,
      "எதறகக": 5387,
      "ஏஞசல": 5388,
      "ஐபன": 5389,
      "ஓச": 5390,
      "கஙகம": 5391,
      "கவவ": 5392,
      "கசகக": 5393,
      "ஜபர": 5394,
      "ஞசவ": 5395,
      "ஞசயம": 5396,
      "மசர": 5397,
      "மவரக": 5398,
      "யங": 5399,
      "யஷ": 5400,
      "யபத": 5401,
      "யனம": 5402,
      "லதயன": 5403,
      "வஜயம": 5404,
      "ஷய": 5405,
      "ஷமப": 5406,
      "ஷசன": 5407,
      "ஷவன": 5408,
      "ஷவரம": 5409,
      "ஸவகக": 5410,
      "ஸமதத": 5411,
      "ஸரன": 5412,
      "ஹலம": 5413,
      "ஹடர": 5414,
      "ஹனஸ": 5415,
      "ஹதஷ": 5416,
      "ககலல": 5417,
      "ககததனர": 5418,
      "பபளள": 5419,
      "வரமற": 5420,
      "வரயபபட": 5421,
      "ததவர": 5422,
      "ததபத": 5423,
      "ததகம": 5424,
      "களடனம": 5425,
      "பரமன": 5426,
      "பரசச": 5427,
      "பரககபபடட": 5428,
      "பரஸட": 5429,
      "பரபள": 5430,
      "பரவரர": 5431,
      "அவரகளடமரநத": 5432,
      "தரண": 5433,
      "கரதல": 5434,
      "கரகணம": 5435,
      "சயவ": 5436,
      "சயனம": 5437,
      "சயசச": 5438,
      "சயவதறகம": 5439,
      "இரததம": 5440,
      "இரபறமம": 5441,
      "இரசயனம": 5442,
      "எனஎஸ": 5443,
      "எனஎல": 5444,
      "மனமகன": 5445,
      "மனதடன": 5446,
      "ஒரம": 5447,
      "கடகர": 5448,
      "கடவச": 5449,
      "ஙகளகம": 5450,
      "சலததய": 5451,
      "சலணடர": 5452,
      "மறறவம": 5453,
      "மறறபபடட": 5454,
      "சரச": 5455,
      "சரதத": 5456,
      "சரசர": 5457,
      "சரளம": 5458,
      "சரககபபடம": 5459,
      "பலயம": 5460,
      "வலயல": 5461,
      "வலததள": 5462,
      "இதலலம": 5463,
      "கறஸத": 5464,
      "வளண": 5465,
      "யரவர": 5466,
      "நடஙக": 5467,
      "நடபத": 5468,
      "நடகளடன": 5469,
      "மரர": 5470,
      "மரசச": 5471,
      "மரசன": 5472,
      "மடககபபட": 5473,
      "மடபபடடளளத": 5474,
      "மடகபபடட": 5475,
      "வதபப": 5476,
      "வழய": 5477,
      "வழமற": 5478,
      "பனலநத": 5479,
      "பனபபழவ": 5480,
      "கலகடர": 5481,
      "கலபபகக": 5482,
      "தடச": 5483,
      "தடபபட": 5484,
      "தடசயயபபடடளளத": 5485,
      "பயறறவ": 5486,
      "நரவழ": 5487,
      "பபதகம": 5488,
      "அனநத": 5489,
      "மறகட": 5490,
      "கடடபப": 5491,
      "சமச": 5492,
      "சமபர": 5493,
      "சமததவம": 5494,
      "உஙகளககம": 5495,
      "படடகளககன": 5496,
      "கணடபபக": 5497,
      "கணடபடததளளனர": 5498,
      "தவபம": 5499,
      "வணடகள": 5500,
      "ததரககலம": 5501,
      "மககளடய": 5502,
      "கணவரம": 5503,
      "பணததயம": 5504,
      "பணயடம": 5505,
      "படததல": 5506,
      "தறயம": 5507,
      "தறசயலக": 5508,
      "வயதலரநத": 5509,
      "ககபபடலம": 5510,
      "அடவரம": 5511,
      "அடககடட": 5512,
      "அடநதவடன": 5513,
      "மழபபழவ": 5514,
      "வனக": 5515,
      "வனவழ": 5516,
      "வனவலம": 5517,
      "வனடல": 5518,
      "வனஷன": 5519,
      "மலணட": 5520,
      "மலவனத": 5521,
      "அழம": 5522,
      "அழதர": 5523,
      "அழபபர": 5524,
      "நதரன": 5525,
      "சசயடன": 5526,
      "அமபத": 5527,
      "அமபபளர": 5528,
      "தடரக": 5529,
      "ஏறவ": 5530,
      "வசஷம": 5531,
      "தரவகளயம": 5532,
      "தரவததளளன": 5533,
      "கரமபப": 5534,
      "கழநதயக": 5535,
      "பசதல": 5536,
      "பசகறர": 5537,
      "பசககணட": 5538,
      "கபபகம": 5539,
      "சநதககவம": 5540,
      "ஆணடதற": 5541,
      "உயரவழ": 5542,
      "உயரநதமனறம": 5543,
      "கயளளத": 5544,
      "கயபபடதத": 5545,
      "கயபபம": 5546,
      "கயபஸ": 5547,
      "வடடபபடம": 5548,
      "வடடவசத": 5549,
      "ககடத": 5550,
      "ககடல": 5551,
      "எடககவம": 5552,
      "அணல": 5553,
      "அணகறர": 5554,
      "இறம": 5555,
      "உதவயளளத": 5556,
      "தடஙகமற": 5557,
      "சயலரநத": 5558,
      "ஜனவ": 5559,
      "ஜனபதம": 5560,
      "இடநறதத": 5561,
      "இடஒதகக": 5562,
      "இனஸடட": 5563,
      "அளககபபடட": 5564,
      "அளககவலல": 5565,
      "அளககபபடடத": 5566,
      "அளவலன": 5567,
      "சதநத": 5568,
      "சதடடம": 5569,
      "அலரம": 5570,
      "அனவரடனம": 5571,
      "ஒனறகம": 5572,
      "பரதகக": 5573,
      "பரமஜ": 5574,
      "பரமசச": 5575,
      "பகதககன": 5576,
      "தயவம": 5577,
      "ஹரதவர": 5578,
      "பரடபடதத": 5579,
      "வளயடபபட": 5580,
      "பகரஙக": 5581,
      "ககனத": 5582,
      "அனமதககமற": 5583,
      "தழம": 5584,
      "தழர": 5585,
      "இணஙக": 5586,
      "அறவககபபடடன": 5587,
      "அமரவத": 5588,
      "யடஐட": 5589,
      "இரபபவர": 5590,
      "எஸஇ": 5591,
      "எஸஆர": 5592,
      "பழதபர": 5593,
      "சறறணட": 5594,
      "சறறபபற": 5595,
      "தணடர": 5596,
      "தணடவளம": 5597,
      "மமமன": 5598,
      "ஸடமரநத": 5599,
      "ஒரவரயரவர": 5600,
      "பளட": 5601,
      "பளஙக": 5602,
      "வசரபபர": 5603,
      "மனனறற": 5604,
      "பதகபபககக": 5605,
      "பதகபபறகக": 5606,
      "கவடன": 5607,
      "பரநதற": 5608,
      "சடடபபட": 5609,
      "உணமததனம": 5610,
      "கணடபடககபபடடன": 5611,
      "ரஜஷ": 5612,
      "ஆடகள": 5613,
      "ரமய": 5614,
      "கவனபப": 5615,
      "நறததலம": 5616,
      "கடடபபடளட": 5617,
      "சகரககபபட": 5618,
      "சதனயளர": 5619,
      "மஸதர": 5620,
      "இழநதளளனர": 5621,
      "கணடறதல": 5622,
      "பஜப": 5623,
      "சததகர": 5624,
      "தபபற": 5625,
      "ஆசரயரக": 5626,
      "உணரவலல": 5627,
      "பஸகர": 5628,
      "தழலள": 5629,
      "அனபபவம": 5630,
      "அனபபபபடம": 5631,
      "தணறல": 5632,
      "உறதபபடததய": 5633,
      "மனமதர": 5634,
      "கததடன": 5635,
      "கததலரநத": 5636,
      "ரனகள": 5637,
      "எனனனன": 5638,
      "பரதததம": 5639,
      "பரததபபடடளளன": 5640,
      "சதரண": 5641,
      "சதரஙகம": 5642,
      "இனறயம": 5643,
      "ஜயநத": 5644,
      "அனபககர": 5645,
      "வநதட": 5646,
      "வநதளளர": 5647,
      "ஹலவ": 5648,
      "சழபபடடளளத": 5649,
      "வததரபபத": 5650,
      "வததரககறத": 5651,
      "வததரககறரகள": 5652,
      "வததரபபவர": 5653,
      "கடனமனத": 5654,
      "பதலளககம": 5655,
      "உரமகளககக": 5656,
      "களளயர": 5657,
      "அபபல": 5658,
      "நககததடன": 5659,
      "கவலதறயன": 5660,
      "ரகவம": 5661,
      "கறபபண": 5662,
      "நதபதயக": 5663,
      "மசஜ": 5664,
      "படடயலடட": 5665,
      "அததகயவர": 5666,
      "தனனடம": 5667,
      "மலலக": 5668,
      "பபனத": 5669,
      "இளயவர": 5670,
      "சததரர": 5671,
      "சநதரபபம": 5672,
      "களககனத": 5673,
      "கடமபததனரம": 5674,
      "கடமபததனரடன": 5675,
      "வபபததக": 5676,
      "கணடரககறரகள": 5677,
      "அடபபடயகக": 5678,
      "இசககரவ": 5679,
      "பணடக": 5680,
      "பணடதர": 5681,
      "கமபம": 5682,
      "கவலபபடகக": 5683,
      "சஷமத": 5684,
      "தயமர": 5685,
      "ஈரகக": 5686,
      "கரணமக": 5687,
      "ஏறபடடதக": 5688,
      "ஏறபடடளளன": 5689,
      "வரசபபடதத": 5690,
      "வயதனவர": 5691,
      "சரயனத": 5692,
      "பரககல": 5693,
      "சமகஞ": 5694,
      "பரஸபர": 5695,
      "வததயசமன": 5696,
      "தரமணமன": 5697,
      "வஸவ": 5698,
      "வஸமய": 5699,
      "கடமககளக": 5700,
      "சபபல": 5701,
      "கயமடநதளளனர": 5702,
      "இயறகயன": 5703,
      "எறய": 5704,
      "எறதல": 5705,
      "சவரஸயம": 5706,
      "தமழகம": 5707,
      "நடவரசகளக": 5708,
      "தநதயக": 5709,
      "றகவலல": 5710,
      "நறவனததடன": 5711,
      "எதரகளளம": 5712,
      "ஆடசயளரகளக": 5713,
      "கலலவர": 5714,
      "நடநததக": 5715,
      "தனயரம": 5716,
      "மலலயனககம": 5717,
      "நனகடயளர": 5718,
      "ஓயவதய": 5719,
      "ஹமநத": 5720,
      "உறதயளததளளத": 5721,
      "உறதயளததளளர": 5722,
      "நரவணம": 5723,
      "பணணக": 5724,
      "நதமனறமம": 5725,
      "நனவகர": 5726,
      "பதககஙகளடன": 5727,
      "நயவயபபட": 5728,
      "மகரசபட": 5729,
      "உனனபபகக": 5730,
      "தனமபபடததபபடடளளனர": 5731,
      "ஈடபடடளளத": 5732,
      "கறநதவட": 5733,
      "மரனங": 5734,
      "எழதயளளர": 5735,
      "ஐஎஸஐ": 5736,
      "நரபககபபடடளளத": 5737,
      "அரசஙகததறகம": 5738,
      "ஐஸலநத": 5739,
      "பவனஸவர": 5740,
      "மனனரமயக": 5741,
      "அறயபபடடவர": 5742,
      "அஸவன": 5743,
      "ஒறறபபட": 5744,
      "வரபபபபட": 5745,
      "நதனயக": 5746,
      "இரபபதகத": 5747,
      "இரபபதகவம": 5748,
      "பயபபடகற": 5749,
      "கணணரபபக": 5750,
      "ஒளரம": 5751,
      "சளககயர": 5752,
      "மலயளம": 5753,
      "எனபதகம": 5754,
      "எனபதறகன": 5755,
      "களவபபடடரகக": 5756,
      "களவபபடடரககறரகள": 5757,
      "ஒரஙகணநத": 5758,
      "அறபதமக": 5759,
      "மணமணகக": 5760,
      "வதனபபட": 5761,
      "கடததலகரர": 5762,
      "மகஜனபதர": 5763,
      "மரதவட": 5764,
      "அஜமல": 5765,
      "மனசஸடர": 5766,
      "யடயபர": 5767,
      "ஊககமளககம": 5768,
      "ஆஜரபடதத": 5769,
      "வககடபப": 5770,
      "இரககமபத": 5771,
      "நனறயளளவர": 5772,
      "அறநதரநதர": 5773,
      "ஒபபககணடத": 5774,
      "நலனககக": 5775,
      "கறறபபததரகக": 5776,
      "ககணடரநதபத": 5777,
      "எளமயன": 5778,
      "பயனபடததபபடகறத": 5779,
      "வததயசமனத": 5780,
      "லரனஸ": 5781,
      "ஸபஸஜட": 5782,
      "வரயறகக": 5783,
      "கரபடகரன": 5784,
      "50000": 5785,
      "ool": 5786,
      "கவனககறவக": 5787,
      "நணணறவ": 5788,
      "மலயறபவர": 5789,
      "பளபளபபன": 5790,
      "வயதககடபடட": 5791,
      "அதகரமளததல": 5792,
      "அபஜத": 5793,
      "வரதடசண": 5794,
      "மகசசறய": 5795,
      "சமபநதபபடட": 5796,
      "அமரதசரஸ": 5797,
      "ஆவலடன": 5798,
      "தரயவநத": 5799,
      "கரமதறற": 5800,
      "மலமறயட": 5801,
      "உபநஷம": 5802,
      "அககமபககததனர": 5803,
      "ஊரமள": 5804,
      "கஙகமபப": 5805,
      "பயறறவபபளர": 5806,
      "இடஒதககடட": 5807,
      "11": 5808,
      "3இல": 5809,
      "5இல": 5810,
      "5000": 5811,
      "al": 5812,
      "at": 5813,
      "cd": 5814,
      "cm": 5815,
      "de": 5816,
      "en": 5817,
      "it": 5818,
      "or": 5819,
      "sch": 5820,
      "ve": 5821,
      "ww": 5822,
      "ஃம": 5823,
      "ஃபக": 5824,
      "ஃபரக": 5825,
      "அநதர": 5826,
      "அவமனம": 5827,
      "அசகக": 5828,
      "அசததம": 5829,
      "அகதர": 5830,
      "அபஷ": 5831,
      "அவமனபபட": 5832,
      "ஆபர": 5833,
      "இந": 5834,
      "இதன": 5835,
      "ஈத": 5836,
      "ஈஷ": 5837,
      "ஈவன": 5838,
      "ஈஸடர": 5839,
      "உஜ": 5840,
      "உணட": 5841,
      "உடம": 5842,
      "ஊற": 5843,
      "எதனல": 5844,
      "எதறக": 5845,
      "ஏவல": 5846,
      "ஏழம": 5847,
      "ஏகநத": 5848,
      "ஏஎனஐ": 5849,
      "ஐஏ": 5850,
      "ஐத": 5851,
      "ஐடச": 5852,
      "ஓரவ": 5853,
      "கசசர": 5854,
      "ஙத": 5855,
      "ஙடன": 5856,
      "சதல": 5857,
      "சனர": 5858,
      "சபன": 5859,
      "சகல": 5860,
      "சளம": 5861,
      "சஏப": 5862,
      "சவகன": 5863,
      "சஎனஜ": 5864,
      "ஜஎன": 5865,
      "ஜசம": 5866,
      "ஜநதர": 5867,
      "ஜஸட": 5868,
      "ஞசத": 5869,
      "டமப": 5870,
      "டபச": 5871,
      "டஜன": 5872,
      "டசதத": 5873,
      "டணடர": 5874,
      "தளளத": 5875,
      "தணடம": 5876,
      "தஹர": 5877,
      "தககபபடடத": 5878,
      "தஞசம": 5879,
      "தஹய": 5880,
      "நசம": 5881,
      "நலலத": 5882,
      "நபரம": 5883,
      "நகஸ": 5884,
      "பஓ": 5885,
      "பமர": 5886,
      "பநதர": 5887,
      "பசயம": 5888,
      "பஷர": 5889,
      "மபபர": 5890,
      "மஙகல": 5891,
      "யசய": 5892,
      "யதல": 5893,
      "யகத": 5894,
      "யவன": 5895,
      "ரங": 5896,
      "ரதர": 5897,
      "ரவல": 5898,
      "ரமட": 5899,
      "ரகம": 5900,
      "ரவன": 5901,
      "ரசத": 5902,
      "ரததம": 5903,
      "ரசரட": 5904,
      "ரஞசத": 5905,
      "றம": 5906,
      "லங": 5907,
      "லத": 5908,
      "லககர": 5909,
      "லகஸ": 5910,
      "வயர": 5911,
      "வககபபடட": 5912,
      "வஹர": 5913,
      "வககபபடம": 5914,
      "ஷயம": 5915,
      "ஷரக": 5916,
      "ஷரப": 5917,
      "ஸம": 5918,
      "ஸகன": 5919,
      "ஸபடன": 5920,
      "ஸகடல": 5921,
      "ககவல": 5922,
      "கககல": 5923,
      "ககயளளத": 5924,
      "பபசக": 5925,
      "வரகட": 5926,
      "வரதல": 5927,
      "வரயல": 5928,
      "வரயலன": 5929,
      "வரவறகபபட": 5930,
      "நதனம": 5931,
      "ததககம": 5932,
      "தததட": 5933,
      "ததடமரநத": 5934,
      "களகக": 5935,
      "களபல": 5936,
      "பரஷ": 5937,
      "பரளளர": 5938,
      "பரசவ": 5939,
      "பரவலக": 5940,
      "தரணட": 5941,
      "தரடர": 5942,
      "தரபபடதத": 5943,
      "தரககபபடம": 5944,
      "தரததலரநத": 5945,
      "தரயடல": 5946,
      "தரநதரககலம": 5947,
      "கரததர": 5948,
      "சயதனம": 5949,
      "படககறர": 5950,
      "படஙகளம": 5951,
      "படபபடடவர": 5952,
      "படவதமக": 5953,
      "இரவரயம": 5954,
      "இரஃபன": 5955,
      "எனப": 5956,
      "எனபபட": 5957,
      "எனடடவ": 5958,
      "மனகக": 5959,
      "மனஹல": 5960,
      "தனகர": 5961,
      "தனனம": 5962,
      "கடபபத": 5963,
      "கடததளளத": 5964,
      "கடரக": 5965,
      "கடசயக": 5966,
      "பதவட": 5967,
      "பதயலய": 5968,
      "பதவககலம": 5969,
      "சலஃப": 5970,
      "மறறபபடடளளத": 5971,
      "மறறயளளத": 5972,
      "மறறபபளள": 5973,
      "சரஷ": 5974,
      "சரவட": 5975,
      "சரமனம": 5976,
      "சரலநத": 5977,
      "சரநதவர": 5978,
      "பலடட": 5979,
      "பலகர": 5980,
      "பலபரள": 5981,
      "பலயனத": 5982,
      "வலவச": 5983,
      "வலயலரநத": 5984,
      "வலவயப": 5985,
      "வடயக": 5986,
      "வடகழகக": 5987,
      "கறயம": 5988,
      "கறககட": 5989,
      "கறபபடதத": 5990,
      "கறபபடடரபபத": 5991,
      "வளயல": 5992,
      "யரகக": 5993,
      "யரடமம": 5994,
      "நடமத": 5995,
      "நடபக": 5996,
      "நடபயறச": 5997,
      "நடகளககம": 5998,
      "அதவக": 5999,
      "மரபய": 6000,
      "மரபக": 6001,
      "மரகஸ": 6002,
      "பறபபடட": 6003,
      "பறபபளர": 6004,
      "பறபபடடர": 6005,
      "பறயயல": 6006,
      "மடககண": 6007,
      "மடயத": 6008,
      "வழநதவர": 6009,
      "வழநடமத": 6010,
      "கமஸ": 6011,
      "பபடடரநதத": 6012,
      "பனய": 6013,
      "பனதம": 6014,
      "பனபபற": 6015,
      "கலயம": 6016,
      "கலகம": 6017,
      "கலசசர": 6018,
      "கலகரம": 6019,
      "கலசயம": 6020,
      "கலஃபள": 6021,
      "பயவட": 6022,
      "கழஙக": 6023,
      "கழவற": 6024,
      "கழககட": 6025,
      "கழததல": 6026,
      "கழயளளம": 6027,
      "நனககவலல": 6028,
      "நனவசச": 6029,
      "சசட": 6030,
      "நரநல": 6031,
      "நரசங": 6032,
      "நரததறகள": 6033,
      "நரயண": 6034,
      "அனபன": 6035,
      "மறததளளனர": 6036,
      "மதநத": 6037,
      "மதமறறம": 6038,
      "மதககபபட": 6039,
      "கடடபட": 6040,
      "கடடதல": 6041,
      "கடடவதறகக": 6042,
      "சமமதம": 6043,
      "ளளதவத": 6044,
      "படடய": 6045,
      "படடற": 6046,
      "இலடசதத": 6047,
      "இநதயவடன": 6048,
      "இநதயவககம": 6049,
      "கணடவசச": 6050,
      "கணடமரகம": 6051,
      "தவனம": 6052,
      "அறஙக": 6053,
      "கணபபடவலல": 6054,
      "பணககக": 6055,
      "சறயம": 6056,
      "சனவல": 6057,
      "தறயனர": 6058,
      "பறறரம": 6059,
      "பறறநயல": 6060,
      "படமம": 6061,
      "வயபர": 6062,
      "வயவழ": 6063,
      "அடர": 6064,
      "அடநதளளனர": 6065,
      "அடககமட": 6066,
      "மழயம": 6067,
      "மழயலம": 6068,
      "வனட": 6069,
      "ககபபடடலம": 6070,
      "மலஸ": 6071,
      "மலரய": 6072,
      "நலப": 6073,
      "நலநறதத": 6074,
      "அழககபபடட": 6075,
      "பகமர": 6076,
      "சசயக": 6077,
      "ஆகயவ": 6078,
      "வழஙகவதறகக": 6079,
      "வழஙகவதறகன": 6080,
      "உணவம": 6081,
      "கறறவயல": 6082,
      "கறறககணட": 6083,
      "கறறபபரவ": 6084,
      "கரமபபற": 6085,
      "பததம": 6086,
      "சகவ": 6087,
      "சகமன": 6088,
      "கழநதயயம": 6089,
      "உறநத": 6090,
      "வமனஙகளம": 6091,
      "நமபர": 6092,
      "பயனபடததலம": 6093,
      "கபபளர": 6094,
      "சநதனம": 6095,
      "சநதககவலல": 6096,
      "சநததரர": 6097,
      "ஆணடன": 6098,
      "டரச": 6099,
      "டரவர": 6100,
      "டரடன": 6101,
      "எழதல": 6102,
      "கனனஸ": 6103,
      "கனடய": 6104,
      "கனகரட": 6105,
      "உயரமனவர": 6106,
      "கயளளர": 6107,
      "கயவடன": 6108,
      "ஆரஏ": 6109,
      "அநதநத": 6110,
      "அநதஸத": 6111,
      "வடடபபட": 6112,
      "ககடயவ": 6113,
      "பயரகளம": 6114,
      "தமம": 6115,
      "எதரககட": 6116,
      "எதரபரதத": 6117,
      "அணககக": 6118,
      "இறக": 6119,
      "உதவயறற": 6120,
      "சயலகளடன": 6121,
      "சயலழபப": 6122,
      "ஜனக": 6123,
      "அதகரததளளன": 6124,
      "உடபற": 6125,
      "இடல": 6126,
      "இடபட": 6127,
      "இனன": 6128,
      "தவரமனம": 6129,
      "அளககபபடம": 6130,
      "அளததளளன": 6131,
      "சதககம": 6132,
      "அலற": 6133,
      "அலடசய": 6134,
      "அலமனயம": 6135,
      "சவஜ": 6136,
      "சவநத": 6137,
      "அனவரடமம": 6138,
      "அனததலம": 6139,
      "உணவககக": 6140,
      "பரதப": 6141,
      "பரதசதத": 6142,
      "பகதயம": 6143,
      "வஙகபபடட": 6144,
      "ஹரட": 6145,
      "ஹரபன": 6146,
      "பரடகளயம": 6147,
      "வளயடபபடடன": 6148,
      "வவரககம": 6149,
      "வவரஙகளம": 6150,
      "தயரககபபடடளளத": 6151,
      "தயரககபபடடத": 6152,
      "பகரவ": 6153,
      "அனமதயனற": 6154,
      "நளமன": 6155,
      "இணககபபடம": 6156,
      "அறவததளளனர": 6157,
      "அறவககபபடவலல": 6158,
      "யடமரநத": 6159,
      "தணடயளளத": 6160,
      "நபரகளம": 6161,
      "பபடமபத": 6162,
      "மமசம": 6163,
      "ஸடக": 6164,
      "ஸடயன": 6165,
      "எனவதன": 6166,
      "நகரதத": 6167,
      "எழதபபடடத": 6168,
      "தலவரகளககம": 6169,
      "பளன": 6170,
      "தளபடம": 6171,
      "சடச": 6172,
      "வளவககம": 6173,
      "பலரகக": 6174,
      "எமச": 6175,
      "எமஆர": 6176,
      "எமபபஎஸ": 6177,
      "வரஸலரநத": 6178,
      "உணமயலல": 6179,
      "கணடபடககபபடடத": 6180,
      "ரமஷ": 6181,
      "ரமயணம": 6182,
      "கவனககவம": 6183,
      "நறததமடம": 6184,
      "நறததபபடடன": 6185,
      "நணய": 6186,
      "அஙகட": 6187,
      "கவசம": 6188,
      "தவறதல": 6189,
      "ஆதரவம": 6190,
      "கரததக": 6191,
      "கரததலமப": 6192,
      "பரசசனயக": 6193,
      "ஆசரவத": 6194,
      "நமபமட": 6195,
      "நகரமம": 6196,
      "மனதபமன": 6197,
      "பணமம": 6198,
      "ஆலயம": 6199,
      "ஆலகஹல": 6200,
      "இழம": 6201,
      "இழநதவர": 6202,
      "பயணகளம": 6203,
      "மணவரக": 6204,
      "பகஸதனககம": 6205,
      "பஜகவடன": 6206,
      "ஹரஷன": 6207,
      "195": 6208,
      "வரரகளடன": 6209,
      "சததக": 6210,
      "சததகரபபன": 6211,
      "தபபழம": 6212,
      "சலததபபடம": 6213,
      "ககயயம": 6214,
      "ககயடன": 6215,
      "நரபபபபட": 6216,
      "பனபறறவ": 6217,
      "பஸயக": 6218,
      "பஸபரடட": 6219,
      "சயயபபடடரககலம": 6220,
      "தழலமனவர": 6221,
      "தணடடன": 6222,
      "மததயர": 6223,
      "மததமட": 6224,
      "பலமற": 6225,
      "கததபபகக": 6226,
      "ரனபர": 6227,
      "தகவலகளனபட": 6228,
      "அமதபபடதத": 6229,
      "சரமவ": 6230,
      "பரததட": 6231,
      "பரததமக": 6232,
      "தரதலககக": 6233,
      "நடவடகககளயம": 6234,
      "நணபரடம": 6235,
      "இனறவர": 6236,
      "எளதன": 6237,
      "உறபபனரகவம": 6238,
      "சபஷ": 6239,
      "யரநதல": 6240,
      "ஊழயரகளககம": 6241,
      "நழவயல": 6242,
      "பரவயளளன": 6243,
      "பரவயறறம": 6244,
      "வநதவட": 6245,
      "வநததக": 6246,
      "கறபபடவலல": 6247,
      "கறபபடபபடடளளன": 6248,
      "அவறறடன": 6249,
      "கததரககம": 6250,
      "ஹலத": 6251,
      "கநதஜ": 6252,
      "கநதல": 6253,
      "கணடறயபபடடளளத": 6254,
      "கஸவம": 6255,
      "எரல": 6256,
      "நடடலம": 6257,
      "நககததறகக": 6258,
      "எழததபப": 6259,
      "தரபபள": 6260,
      "சஙகத": 6261,
      "சஙகஙகளம": 6262,
      "ஜடஸ": 6263,
      "பதபபகக": 6264,
      "கவமடம": 6265,
      "சலலற": 6266,
      "அபபடபபடட": 6267,
      "பறறரடம": 6268,
      "தரநதடககபபடடளளர": 6269,
      "டஸன": 6270,
      "டஸல": 6271,
      "களரவ": 6272,
      "களரகல": 6273,
      "நயததறறலரநத": 6274,
      "இளஙகல": 6275,
      "கபபறறயளளனர": 6276,
      "உசசமநட": 6277,
      "சநதரனம": 6278,
      "ஒளபக": 6279,
      "பரபலமக": 6280,
      "டமரநதம": 6281,
      "பரகஞன": 6282,
      "படலபததர": 6283,
      "கணடரபபத": 6284,
      "அடபபடயக": 6285,
      "தஷமக": 6286,
      "கவதயலரநத": 6287,
      "தகதயன": 6288,
      "மறகததய": 6289,
      "கவலபபடவதலல": 6290,
      "நதயணட": 6291,
      "பஞசமன": 6292,
      "தயமயன": 6293,
      "ஈரனல": 6294,
      "ரயஸ": 6295,
      "உளளடச": 6296,
      "ஸடரம": 6297,
      "மகககவச": 6298,
      "பலனயவ": 6299,
      "மதபபயவ": 6300,
      "நரமபயரககம": 6301,
      "ஊககவககபபட": 6302,
      "கடறகள": 6303,
      "படககயற": 6304,
      "கணடடட": 6305,
      "உறசகபபட": 6306,
      "உறசகததடன": 6307,
      "கரலசன": 6308,
      "கடமககளம": 6309,
      "நயமககபபடடளளர": 6310,
      "இபபடயக": 6311,
      "கலலரல": 6312,
      "எடததககள": 6313,
      "அனபவபபர": 6314,
      "ஊரககவல": 6315,
      "எடடயளளத": 6316,
      "கறறசசட": 6317,
      "அமலபடததபபடம": 6318,
      "வறகபபடம": 6319,
      "com": 6320,
      "கலயள": 6321,
      "பழஙகட": 6322,
      "வரயபபடடளளத": 6323,
      "வரயபபடடளளன": 6324,
      "மஜஹ": 6325,
      "தனததவம": 6326,
      "வயமழ": 6327,
      "கறறசசடடகளயம": 6328,
      "ஓயவபறற": 6329,
      "பதககபபடகறரகள": 6330,
      "மரணபட": 6331,
      "மணமணபப": 6332,
      "அழததததறக": 6333,
      "மசசபபடதத": 6334,
      "சரயனம": 6335,
      "கழககளககம": 6336,
      "பதகககம": 6337,
      "வளயறவததற": 6338,
      "மறறததறனளகளககன": 6339,
      "சனறதழம": 6340,
      "ஈடபடடதக": 6341,
      "ஒவவம": 6342,
      "கககடய": 6343,
      "இரடடபப": 6344,
      "பறககவட": 6345,
      "ஃபடகஸ": 6346,
      "ஹதரபதத": 6347,
      "லஸபயன": 6348,
      "எழதயவர": 6349,
      "கரயககடய": 6350,
      "கயளதல": 6351,
      "இயககநரக": 6352,
      "சவடசரலநத": 6353,
      "பரவமல": 6354,
      "உணணபபட": 6355,
      "ஈரனன": 6356,
      "ஈரனய": 6357,
      "வழவதரம": 6358,
      "தபலகரர": 6359,
      "மடபணடம": 6360,
      "தரயறஙகயவடன": 6361,
      "ஓயவடககவம": 6362,
      "தளரவ": 6363,
      "ஒரஙகணபப": 6364,
      "அறயபபடத": 6365,
      "உரவககபபடடளளத": 6366,
      "உரவககபபடடத": 6367,
      "ஒததவககபபடடளளத": 6368,
      "கரடடன": 6369,
      "கரணடஸலம": 6370,
      "சறநரகம": 6371,
      "ஆகயவறறல": 6372,
      "வரபபமன": 6373,
      "வலஙககளயம": 6374,
      "ஊடகஙகளடன": 6375,
      "ஒடககமற": 6376,
      "பசயடன": 6377,
      "எதரமறயன": 6378,
      "அமரநதரநதர": 6379,
      "தடஙகயதலரநத": 6380,
      "நகலடககவம": 6381,
      "பதகககபபடம": 6382,
      "மடயவட": 6383,
      "இயறறபபட": 6384,
      "insch": 6385,
      "வளபபறம": 6386,
      "வதககபபடலம": 6387,
      "அவசயமலல": 6388,
      "சததயமறறத": 6389,
      "சஙகடமக": 6390,
      "எஞசயளளத": 6391,
      "பதவடடளளதவத": 6392,
      "ஏரளமனர": 6393,
      "பததகஙகளயம": 6394,
      "சதறட": 6395,
      "சஆரபஎம": 6396,
      "ஹஷடக": 6397,
      "வரததயயம": 6398,
      "2014": 6399,
      "டணடல": 6400,
      "ஹடஸபட": 6401,
      "ஆவணபபடம": 6402,
      "மனவயடன": 6403,
      "பழதபகக": 6404,
      "வநயகககபபடடன": 6405,
      "ஞனமளள": 6406,
      "நசசயமறறம": 6407,
      "பரகரதம": 6408,
      "ஆனடகவ": 6409,
      "எமரடஸல": 6410,
      "ஓரனசசரககயளர": 6411,
      "அதகரததளளதல": 6412,
      "எலசபத": 6413,
      "அனரக": 6414,
      "வளநடடவர": 6415,
      "உளவயலளர": 6416,
      "பயரடடளளனர": 6417,
      "அபபறபபடதத": 6418,
      "ஹஸபல": 6419,
      "ககனறன": 6420,
      "சமதனபபடதத": 6421,
      "மடடளதனமன": 6422,
      "stem": 6423,
      "ஆஃபலன": 6424,
      "தஙககறர": 6425,
      "மயககபபளர": 6426,
      "signlanguageinsch": 6427,
      "வனடலடடர": 6428,
      "இனஸடடயட": 6429,
      "அனபககரயர": 6430,
      "அபஷக": 6431,
      "இநநறவனம": 6432,
      "இதனடன": 6433,
      "ஈவனங": 6434,
      "ஸபடனக": 6435,
      "ஸகடலந": 6436,
      "தனனமபகக": 6437,
      "கறபபடடரபபதவத": 6438,
      "கலஃபளவர": 6439,
      "நனவசசனம": 6440,
      "பரகஞனநத": 6441,
      "signlanguageinschool": 6442,
      "14": 6443,
      "18": 6444,
      "2இல": 6445,
      "4ஆம": 6446,
      "95": 6447,
      "di": 6448,
      "mo": 6449,
      "ne": 6450,
      "on": 6451,
      "zz": 6452,
      "அஹ": 6453,
      "அவக": 6454,
      "அமலம": 6455,
      "அதரவ": 6456,
      "அஸடர": 6457,
      "அசதரணம": 6458,
      "அயய": 6459,
      "ஆநத": 6460,
      "ஆகல": 6461,
      "ஆததர": 6462,
      "ஆளம": 6463,
      "இசகக": 6464,
      "இஙகரநத": 6465,
      "இஙத": 6466,
      "உதரதல": 6467,
      "ஊசல": 6468,
      "எப": 6469,
      "எமப": 6470,
      "எசசம": 6471,
      "ஏஎன": 6472,
      "ஏஜனச": 6473,
      "ஐஐட": 6474,
      "ஒபபடமபத": 6475,
      "ஓயல": 6476,
      "ஓதக": 6477,
      "கவள": 6478,
      "கவதம": 6479,
      "கபள": 6480,
      "கததன": 6481,
      "கவரவ": 6482,
      "சபல": 6483,
      "சபடட": 6484,
      "சபம": 6485,
      "சஹல": 6486,
      "சளரம": 6487,
      "ஜணட": 6488,
      "ஜகத": 6489,
      "ஜசக": 6490,
      "ஜககர": 6491,
      "ஜ20": 6492,
      "ஞசயத": 6493,
      "ஞரம": 6494,
      "டயர": 6495,
      "டசச": 6496,
      "டநம": 6497,
      "டஙகர": 6498,
      "டலட": 6499,
      "டயலர": 6500,
      "ணறல": 6501,
      "தமன": 6502,
      "தசசர": 6503,
      "தககக": 6504,
      "நமட": 6505,
      "நகழநத": 6506,
      "நகஷ": 6507,
      "நநதன": 6508,
      "னவர": 6509,
      "பஃ": 6510,
      "பஏ": 6511,
      "பவல": 6512,
      "பவய": 6513,
      "பளம": 6514,
      "பஙககள": 6515,
      "பஙகக": 6516,
      "பசனஸ": 6517,
      "மபட": 6518,
      "மகட": 6519,
      "மஙகள": 6520,
      "மவடட": 6521,
      "மவசச": 6522,
      "யககம": 6523,
      "யவத": 6524,
      "யனல": 6525,
      "யஐட": 6526,
      "ரசன": 6527,
      "ரசசர": 6528,
      "ரதம": 6529,
      "ரதனம": 6530,
      "ரககடட": 6531,
      "ரமதவ": 6532,
      "ரஞசன": 6533,
      "லபனன": 6534,
      "வதல": 6535,
      "வனர": 6536,
      "வஸட": 6537,
      "வககறர": 6538,
      "வககபபடடளளன": 6539,
      "வஜயன": 6540,
      "ஷவஙக": 6541,
      "ஷஹத": 6542,
      "ஸபர": 6543,
      "ஸகரன": 6544,
      "ஹலல": 6545,
      "ஹபபர": 6546,
      "ஹஙகர": 6547,
      "ஹபஸ": 6548,
      "ஹகடர": 6549,
      "பபஜ": 6550,
      "பபததனம": 6551,
      "நததம": 6552,
      "ததலய": 6553,
      "தததறகக": 6554,
      "தததலரநத": 6555,
      "ததடனம": 6556,
      "ததணறல": 6557,
      "களய": 6558,
      "களரக": 6559,
      "களகலன": 6560,
      "பரஹ": 6561,
      "பரடன": 6562,
      "பரயல": 6563,
      "பரயன": 6564,
      "பரசசர": 6565,
      "பரளம": 6566,
      "பரகஸ": 6567,
      "பரகளட": 6568,
      "றறளளர": 6569,
      "அவரஙக": 6570,
      "அவரடன": 6571,
      "தரயல": 6572,
      "தரமனம": 6573,
      "கரயம": 6574,
      "கரகன": 6575,
      "கரககடட": 6576,
      "கரயளளர": 6577,
      "கரதனர": 6578,
      "சயதரநத": 6579,
      "படநற": 6580,
      "படயத": 6581,
      "இரன": 6582,
      "இரள": 6583,
      "இரதரபப": 6584,
      "இரமபல": 6585,
      "மனஷ": 6586,
      "மனகர": 6587,
      "மனமட": 6588,
      "மனளம": 6589,
      "மனகடதத": 6590,
      "ஒரமனதக": 6591,
      "தனபர": 6592,
      "தனகழ": 6593,
      "தனஞசம": 6594,
      "ளளவர": 6595,
      "கடசய": 6596,
      "கடமன": 6597,
      "கடபபட": 6598,
      "கடயரநதனர": 6599,
      "வமரசதத": 6600,
      "பதநல": 6601,
      "பதபபடதத": 6602,
      "பதஞசல": 6603,
      "சலடட": 6604,
      "சலபட": 6605,
      "சலததம": 6606,
      "சலபம": 6607,
      "சலறர": 6608,
      "மறறதல": 6609,
      "மறறவதறகக": 6610,
      "சரநத": 6611,
      "சரயல": 6612,
      "சரவன": 6613,
      "சரநதர": 6614,
      "சரஙகம": 6615,
      "சரபஞச": 6616,
      "சரககபபடவலல": 6617,
      "சரயலல": 6618,
      "சரவகவம": 6619,
      "மகலய": 6620,
      "வலவன": 6621,
      "வலகளம": 6622,
      "இதம": 6623,
      "வடமயற": 6624,
      "வடபபடடளளன": 6625,
      "வடவயல": 6626,
      "வடவததடன": 6627,
      "கறபபர": 6628,
      "கறததம": 6629,
      "கறதரபப": 6630,
      "கறஞசயத": 6631,
      "வளவல": 6632,
      "வளபரட": 6633,
      "வளடமர": 6634,
      "யரககறர": 6635,
      "தலபபடன": 6636,
      "தலயண": 6637,
      "நடபபட": 6638,
      "நடமட": 6639,
      "நடசம": 6640,
      "நடநல": 6641,
      "நடகரம": 6642,
      "நடபபகத": 6643,
      "உளவபப": 6644,
      "மறறமம": 6645,
      "மரள": 6646,
      "மரஷ": 6647,
      "மரவல": 6648,
      "மரஜவன": 6649,
      "பறகள": 6650,
      "பறவம": 6651,
      "பறகல": 6652,
      "மடவடய": 6653,
      "வதவலம": 6654,
      "வதயயம": 6655,
      "வழக": 6656,
      "கமள": 6657,
      "பனக": 6658,
      "பனககள": 6659,
      "பனஷல": 6660,
      "கலலல": 6661,
      "கலஃப": 6662,
      "கலவயற": 6663,
      "கலபஷன": 6664,
      "கலபபடபப": 6665,
      "கலபபரட": 6666,
      "தடவ": 6667,
      "தடயவ": 6668,
      "பயட": 6669,
      "பயனம": 6670,
      "பயளளனர": 6671,
      "பயணடஸ": 6672,
      "நனவறறல": 6673,
      "சசதத": 6674,
      "நரக": 6675,
      "நரன": 6676,
      "நரமன": 6677,
      "நரபய": 6678,
      "நரடடம": 6679,
      "நரகரதத": 6680,
      "நரமழக": 6681,
      "பபதலம": 6682,
      "அனத": 6683,
      "அனதபம": 6684,
      "மறபபடட": 6685,
      "மறகணட": 6686,
      "மறமகம": 6687,
      "மறயளளனர": 6688,
      "மறபயரட": 6689,
      "மறஆயவ": 6690,
      "மதஙக": 6691,
      "மதநதர": 6692,
      "கடடளளனர": 6693,
      "சமகக": 6694,
      "சமமகம": 6695,
      "படடளளத": 6696,
      "அரய": 6697,
      "அரவர": 6698,
      "இநதயசன": 6699,
      "கணடன": 6700,
      "தவககக": 6701,
      "டனஸ": 6702,
      "டனபஸ": 6703,
      "வணடம": 6704,
      "வணடமனற": 6705,
      "ததரக": 6706,
      "ததரநதத": 6707,
      "மககளவ": 6708,
      "அறவச": 6709,
      "கணலம": 6710,
      "கணசம": 6711,
      "கணககடய": 6712,
      "வலலயமஸ": 6713,
      "பணயகம": 6714,
      "பணவககம": 6715,
      "சறப": 6716,
      "சறசசல": 6717,
      "சறபனம": 6718,
      "சனவம": 6719,
      "சனசடஸ": 6720,
      "பறறளளன": 6721,
      "வயபபட": 6722,
      "வயடநம": 6723,
      "ககபபடவதலல": 6724,
      "அடல": 6725,
      "அடசசவட": 6726,
      "ரநதலம": 6727,
      "ரநதபத": 6728,
      "ரநததல": 6729,
      "வறறட": 6730,
      "வறறயக": 6731,
      "மலமம": 6732,
      "மழககலம": 6733,
      "வனவள": 6734,
      "வனபபகத": 6735,
      "வறகறர": 6736,
      "தகபபளர": 6737,
      "ககபபடடல": 6738,
      "ககபபடடரககம": 6739,
      "மலநத": 6740,
      "மலதன": 6741,
      "மலபறம": 6742,
      "மலபபகத": 6743,
      "யனடட": 6744,
      "பயனறற": 6745,
      "நலநற": 6746,
      "அழகன": 6747,
      "அழககக": 6748,
      "அழககவலல": 6749,
      "அழககலம": 6750,
      "பகயல": 6751,
      "உரய": 6752,
      "வழஙகபவர": 6753,
      "வழஙகயளளர": 6754,
      "இரணடம": 6755,
      "இரணடலம": 6756,
      "தடரபடயத": 6757,
      "நயதரபப": 6758,
      "கறறஞச": 6759,
      "பபரகள": 6760,
      "சகன": 6761,
      "சகஷ": 6762,
      "சகனல": 6763,
      "சகநதல": 6764,
      "சகபபததனம": 6765,
      "கழநதய": 6766,
      "மணவ": 6767,
      "மணயன": 6768,
      "சயதலம": 6769,
      "கபபநத": 6770,
      "சநதகக": 6771,
      "சநததய": 6772,
      "சநததததக": 6773,
      "ஆணடவர": 6774,
      "டரய": 6775,
      "டரகடர": 6776,
      "எழதன": 6777,
      "எழசச": 6778,
      "எழதவ": 6779,
      "எழதம": 6780,
      "எழதயர": 6781,
      "கனடன": 6782,
      "உயரறற": 6783,
      "உயரளள": 6784,
      "உயரநல": 6785,
      "உயரகலவ": 6786,
      "ஆரஓ": 6787,
      "ஆரபடடர": 6788,
      "ஆரவததடன": 6789,
      "வடடத": 6790,
      "வடடவட": 6791,
      "வடடககரன": 6792,
      "பயரக": 6793,
      "எதரகணட": 6794,
      "எடஜர": 6795,
      "எடததளளர": 6796,
      "எடககபபடடத": 6797,
      "அணவக": 6798,
      "அணநதளளனர": 6799,
      "ததயளளன": 6800,
      "உதவவம": 6801,
      "தடஙகனர": 6802,
      "தடஙகபபடடளளன": 6803,
      "தடஙகபபடடன": 6804,
      "ஜனப": 6805,
      "அதகரகளடன": 6806,
      "அதகரகளயம": 6807,
      "அதகரககலம": 6808,
      "உடலம": 6809,
      "வரததபபட": 6810,
      "வரததயலரநத": 6811,
      "இடமக": 6812,
      "இடககலம": 6813,
      "இடததலம": 6814,
      "இடயலன": 6815,
      "இனசல": 6816,
      "தவரமட": 6817,
      "அளய": 6818,
      "அளககறர": 6819,
      "தரமநதர": 6820,
      "சதய": 6821,
      "சவதர": 6822,
      "உலவ": 6823,
      "பரதய": 6824,
      "வணகததயம": 6825,
      "பரமளவ": 6826,
      "பரமபலவ": 6827,
      "பரமககரய": 6828,
      "பகதகளயம": 6829,
      "வஙகவம": 6830,
      "வஙகடஷ": 6831,
      "வஙகயளளத": 6832,
      "வஙகயளளனர": 6833,
      "பபடதததல": 6834,
      "தயஙக": 6835,
      "தயடம": 6836,
      "ஹரபப": 6837,
      "ஹரதத": 6838,
      "ஹரவரட": 6839,
      "ஹரதஸ": 6840,
      "ஹரபஜன": 6841,
      "பரடஸ": 6842,
      "பரடகளம": 6843,
      "வளயடயளளர": 6844,
      "நரமடடம": 6845,
      "பளளயலரநத": 6846,
      "பளளவவரம": 6847,
      "பகரநதளளனர": 6848,
      "பகரநதரநத": 6849,
      "அனமதததளளத": 6850,
      "மககண": 6851,
      "மககசச": 6852,
      "அனமதககம": 6853,
      "அனமதககபபடடன": 6854,
      "அனமதககபபடடளளனர": 6855,
      "கவலயர": 6856,
      "கவலரநத": 6857,
      "நளக": 6858,
      "நளமனத": 6859,
      "தழழ": 6860,
      "அறவபபர": 6861,
      "மடடயட": 6862,
      "அமரன": 6863,
      "அமரநதரககம": 6864,
      "இரபபதல": 6865,
      "எஸடட": 6866,
      "பழசசற": 6867,
      "சறறம": 6868,
      "சறறவடடம": 6869,
      "வடகககடன": 6870,
      "தணடககபபடம": 6871,
      "ததறககவம": 6872,
      "மமவ": 6873,
      "மமஸ": 6874,
      "ஸடல": 6875,
      "ஸடவ": 6876,
      "ஸடபன": 6877,
      "ஸடககர": 6878,
      "ஸடகஸ": 6879,
      "எலகட": 6880,
      "நடததனர": 6881,
      "நகரக": 6882,
      "நகரததலரநத": 6883,
      "தலவரகவம": 6884,
      "தணணரயம": 6885,
      "தணணரடன": 6886,
      "சடஙககள": 6887,
      "களவகளககன": 6888,
      "மனனடட": 6889,
      "மனனடடம": 6890,
      "பலரடன": 6891,
      "பரநதகணட": 6892,
      "சடடயளளத": 6893,
      "சடடககடட": 6894,
      "எணணற": 6895,
      "எணணயம": 6896,
      "கணடபடககபபடடளளன": 6897,
      "வரவசலவ": 6898,
      "வளரககபபட": 6899,
      "ரஜகமர": 6900,
      "ரஜபகச": 6901,
      "பரளபட": 6902,
      "ஆடசரபப": 6903,
      "பரவததலரநத": 6904,
      "சககபப": 6905,
      "சககமன": 6906,
      "பககவடட": 6907,
      "பககஷம": 6908,
      "நறததவம": 6909,
      "நறததவலல": 6910,
      "நறததபபடடளளத": 6911,
      "அமரககவலரநத": 6912,
      "அஙகலம": 6913,
      "ஆதரமறற": 6914,
      "ஆதரககவலல": 6915,
      "வடவமபபளர": 6916,
      "கரததட": 6917,
      "ரஷப": 6918,
      "ஆசரவதம": 6919,
      "மஸககன": 6920,
      "இழவ": 6921,
      "வகமத": 6922,
      "சபபடலம": 6923,
      "வரமபத": 6924,
      "197": 6925,
      "வரரக": 6926,
      "சததத": 6927,
      "சததமன": 6928,
      "சததநதம": 6929,
      "தபபய": 6930,
      "சலதததல": 6931,
      "ஆசரயரம": 6932,
      "ஒபபககளள": 6933,
      "பனபறறமற": 6934,
      "பனபறறபவர": 6935,
      "பஸஸ": 6936,
      "பசசககரர": 6937,
      "பசசககலல": 6938,
      "தழலமன": 6939,
      "அனபபபபடட": 6940,
      "அழககபபடகறரகள": 6941,
      "உறதயன": 6942,
      "மததனர": 6943,
      "தரநதகள": 6944,
      "தரநதகளள": 6945,
      "கததபபட": 6946,
      "கததலம": 6947,
      "தகவலகளம": 6948,
      "மகழசசயம": 6949,
      "பரததபபடட": 6950,
      "வரதயம": 6951,
      "சஙவன": 6952,
      "தரதலககன": 6953,
      "ரஷயவம": 6954,
      "நணபரக": 6955,
      "மனவநதளளனர": 6956,
      "பநதவசச": 6957,
      "எளதகக": 6958,
      "கஷம": 6959,
      "கஷயர": 6960,
      "சபநய": 6961,
      "ஜயஸ": 6962,
      "மனதரர": 6963,
      "யரநதன": 6964,
      "பரவயளள": 6965,
      "ரணக": 6966,
      "தலமயலன": 6967,
      "ஓடபப": 6968,
      "வததளளர": 6969,
      "கநதள": 6970,
      "கணடறயபபடவலல": 6971,
      "உளளஙக": 6972,
      "உளளவறற": 6973,
      "வததரகக": 6974,
      "கயமபததர": 6975,
      "எரசகத": 6976,
      "நடடவர": 6977,
      "களளவம": 6978,
      "எழததயம": 6979,
      "எழததபபரவம": 6980,
      "தறபதளள": 6981,
      "சஙகசசவட": 6982,
      "மயசசல": 6983,
      "மசபடதத": 6984,
      "மசமடநத": 6985,
      "பறவகளம": 6986,
      "ஜடஜ": 6987,
      "சனறரககலம": 6988,
      "பதககபபடடளள": 6989,
      "ஓடடகறர": 6990,
      "பயஙகரமனத": 6991,
      "கடமபததலரநத": 6992,
      "நலலண": 6993,
      "வலமயன": 6994,
      "கடலரம": 6995,
      "தனனடச": 6996,
      "தரநதடககபபடவலல": 6997,
      "மலலலட": 6998,
      "மலலயனர": 6999,
      "தரணமல": 7000,
      "சறமகளம": 7001,
      "பஙகலற": 7002,
      "நயளகளககன": 7003,
      "தசககள": 7004,
      "பனனன": 7005,
      "பனனகக": 7006,
      "சததரம": 7007,
      "சநதரகபதர": 7008,
      "களதரககம": 7009,
      "நககமகக": 7010,
      "டயனர": 7011,
      "வபபமன": 7012,
      "வபபமட": 7013,
      "மறகளனபட": 7014,
      "தஷர": 7015,
      "ஆளனர": 7016,
      "ஈடக": 7017,
      "சணடர": 7018,
      "சககலன": 7019,
      "ஒடடககணட": 7020,
      "அமசசக": 7021,
      "கமபமள": 7022,
      "படபபததகம": 7023,
      "ஈரககபபடட": 7024,
      "வயதனர": 7025,
      "ககழஙக": 7026,
      "பரனசஸ": 7027,
      "பரனணடஸ": 7028,
      "அமமவ": 7029,
      "சரயனடன": 7030,
      "உளளரவச": 7031,
      "கழபபண": 7032,
      "கழபபமக": 7033,
      "ஊககவபபதறகக": 7034,
      "எதயவத": 7035,
      "வழததககள": 7036,
      "தறனள": 7037,
      "எசசரககபபடடளளத": 7038,
      "சமகஙகளககம": 7039,
      "டசஎஸ": 7040,
      "வழபபழ": 7041,
      "ஆஸதரலயவம": 7042,
      "வளயறறதல": 7043,
      "யவரஜ": 7044,
      "தரமணக": 7045,
      "வணணபபததளளனர": 7046,
      "தததவம": 7047,
      "நரமறயன": 7048,
      "சயததகக": 7049,
      "தலவயடநத": 7050,
      "பலலவர": 7051,
      "அறகறயறற": 7052,
      "ஆபகனய": 7053,
      "பரமபகத": 7054,
      "சவலஙகம": 7055,
      "தககரவ": 7056,
      "ஆரககயமகவம": 7057,
      "ஆடசபன": 7058,
      "இரநததல": 7059,
      "சயலளரக": 7060,
      "உரவககலம": 7061,
      "ஆதரவயம": 7062,
      "நடநததலல": 7063,
      "ஜனதபதயக": 7064,
      "கடடததக": 7065,
      "மழகவரத": 7066,
      "கடததளளன": 7067,
      "மதமளளவர": 7068,
      "மதமளளவறற": 7069,
      "மடநதவடன": 7070,
      "அமலபடததயளளத": 7071,
      "பழஙகடயனர": 7072,
      "நசககற": 7073,
      "நசககறர": 7074,
      "தடடமடடப": 7075,
      "பலவனமட": 7076,
      "உறதபபடததவலல": 7077,
      "சரககமன": 7078,
      "உறதயளததளளனர": 7079,
      "வணணமயமன": 7080,
      "சததயமகம": 7081,
      "ஸகரபட": 7082,
      "தரபபடமக": 7083,
      "சரசசககரய": 7084,
      "வயதலய": 7085,
      "ஒழகக": 7086,
      "ஒழஙகம": 7087,
      "ஈடபடவலல": 7088,
      "ஃபரஸட": 7089,
      "மணமகள": 7090,
      "அஙககரம": 7091,
      "அரததமலல": 7092,
      "எகஸர": 7093,
      "மசசததணறல": 7094,
      "வடபளரகளம": 7095,
      "கழககளகப": 7096,
      "மனமழய": 7097,
      "இலககயம": 7098,
      "கணணய": 7099,
      "கணணடடம": 7100,
      "ஆரமபகல": 7101,
      "அதனலய": 7102,
      "உரளககழஙக": 7103,
      "அஙககரககபபடவலல": 7104,
      "உயரநதளளன": 7105,
      "வடமறககக": 7106,
      "பரதநததத": 7107,
      "ஈடபடடளளர": 7108,
      "சநதகமட": 7109,
      "பனறவறறறக": 7110,
      "அகலபபடதத": 7111,
      "ஐடஎஸ": 7112,
      "வலயலலத": 7113,
      "மரடடயம": 7114,
      "மரடடததனமன": 7115,
      "தடடமடல": 7116,
      "மதயவரம": 7117,
      "சமரபபககவம": 7118,
      "ஆடடமபல": 7119,
      "ஐஎஸஎல": 7120,
      "பஷகர": 7121,
      "பரசதககபபட": 7122,
      "உயரததபபடடளளத": 7123,
      "பரமபலனர": 7124,
      "வதததளளனர": 7125,
      "இயககநரகம": 7126,
      "வககமலம": 7127,
      "சறவரகளம": 7128,
      "வரணன": 7129,
      "சகதவயநதவர": 7130,
      "அடயளபபடதத": 7131,
      "ஆடடசம": 7132,
      "பனரய": 7133,
      "இரஜஜய": 7134,
      "ஒவவனறக": 7135,
      "வரகளகவம": 7136,
      "ஃபனப": 7137,
      "ஜகவச": 7138,
      "ஜகஸதன": 7139,
      "உரவககபபடட": 7140,
      "உரவககபபடடன": 7141,
      "கணககடபப": 7142,
      "சறநரக": 7143,
      "ஆகயவறறன": 7144,
      "மககயமனதக": 7145,
      "ஏமறறமள": 7146,
      "ஜஸடன": 7147,
      "வலஙககளடமரநத": 7148,
      "ஆஙகலததலம": 7149,
      "பசயளளர": 7150,
      "அததயவசயமறற": 7151,
      "ரஸமர": 7152,
      "பரவலன": 7153,
      "படததரககறரகள": 7154,
      "படததரநதத": 7155,
      "ஐசஎமஆர": 7156,
      "சவமய": 7157,
      "அணகககடயதக": 7158,
      "தடஙகயவடன": 7159,
      "எனபதயம": 7160,
      "கடபபதலல": 7161,
      "கடபபழககம": 7162,
      "பதகககபபட": 7163,
      "சறறபபயணம": 7164,
      "கரஷணன": 7165,
      "மகஜனபட": 7166,
      "அணயமல": 7167,
      "உததரவடடளளர": 7168,
      "ஒழஙகபடதத": 7169,
      "ஒழஙகறறம": 7170,
      "தசயவத": 7171,
      "ரஜனகநத": 7172,
      "பதவறகக": 7173,
      "தததறககவம": 7174,
      "கடயறயவர": 7175,
      "மறயடததளளர": 7176,
      "டபளம": 7177,
      "மஸடரகரட": 7178,
      "வரததயடன": 7179,
      "நனறயளளவனக": 7180,
      "1992இல": 7181,
      "அவமனகரம": 7182,
      "ஒறறமயக": 7183,
      "பரபகரம": 7184,
      "அரததமலலம": 7185,
      "வஷயஙகளயம": 7186,
      "எரசசலடட": 7187,
      "ஜவஹர": 7188,
      "சடடபபரவமக": 7189,
      "கவனததககள": 7190,
      "கவனததககளள": 7191,
      "பயநதபன": 7192,
      "ஆரஎஸஎஸ": 7193,
      "தரபபனரம": 7194,
      "அநநயர": 7195,
      "மஹரரம": 7196,
      "கடமகனக": 7197,
      "தடமறதல": 7198,
      "பததணரசசயடன": 7199,
      "கயபபமட": 7200,
      "ஆரவமளளவர": 7201,
      "உதயபபர": 7202,
      "பஎஸஎஃ": 7203,
      "எனஆரச": 7204,
      "உடனரநதர": 7205,
      "சநதகததறகடமன": 7206,
      "ஊடடசசம": 7207,
      "வரவறப": 7208,
      "உளவததற": 7209,
      "கடடககணடளளனர": 7210,
      "அரபபண": 7211,
      "பததயககரம": 7212,
      "இஸலததறக": 7213,
      "தரதரஷடவசமன": 7214,
      "boy": 7215,
      "உநததல": 7216,
      "ஜஎஸசட": 7217,
      "பரமமசசர": 7218,
      "மதததறகள": 7219,
      "மழமயடயவலல": 7220,
      "அயரலநத": 7221,
      "அபததமன": 7222,
      "அமபதகர": 7223,
      "பகரஙகமக": 7224,
      "சறறபபறம": 7225,
      "கரபடகரனஸ": 7226,
      "ஆபரடடர": 7227,
      "உஜஜன": 7228,
      "ஐடசஏ": 7229,
      "ஜஎனய": 7230,
      "டபசட": 7231,
      "ரமடசவர": 7232,
      "கழஙகறகள": 7233,
      "இலடசததவ": 7234,
      "அறஙகவலர": 7235,
      "இனனஙஸ": 7236,
      "2014இல": 7237,
      "மவசசதத": 7238,
      "வடமயறசயடன": 7239,
      "கலவயறவ": 7240,
      "தடயவயல": 7241,
      "ஒபபககளளவலல": 7242,
      "12": 7243,
      "26": 7244,
      "2ஆம": 7245,
      "2000": 7246,
      "3ட": 7247,
      "3ல": 7248,
      "4ஜ": 7249,
      "4ல": 7250,
      "400": 7251,
      "500ககம": 7252,
      "6வத": 7253,
      "80": 7254,
      "9இல": 7255,
      "ay": 7256,
      "ais": 7257,
      "et": 7258,
      "ii": 7259,
      "il": 7260,
      "la": 7261,
      "of": 7262,
      "pm": 7263,
      "ps": 7264,
      "res": 7265,
      "sl": 7266,
      "ta": 7267,
      "ur": 7268,
      "ஃபரஸ": 7269,
      "அசய": 7270,
      "அவல": 7271,
      "அதல": 7272,
      "அவய": 7273,
      "அயன": 7274,
      "அசசய": 7275,
      "அவடட": 7276,
      "அயட": 7277,
      "அகவலபபட": 7278,
      "அஸத": 7279,
      "அஃபரட": 7280,
      "அசததமக": 7281,
      "ஆகட": 7282,
      "ஆசன": 7283,
      "ஆதஷ": 7284,
      "ஆகரவ": 7285,
      "ஆவயக": 7286,
      "இஷ": 7287,
      "இமக": 7288,
      "இயர": 7289,
      "இஞச": 7290,
      "இவரம": 7291,
      "இஷரம": 7292,
      "இஙகளள": 7293,
      "ஈய": 7294,
      "ஈககள": 7295,
      "ஈடடம": 7296,
      "உஷ": 7297,
      "உசன": 7298,
      "ஊடர": 7299,
      "ஊதய": 7300,
      "எஞ": 7301,
      "எயமஸ": 7302,
      "ஏக": 7303,
      "ஏண": 7304,
      "ஏபச": 7305,
      "ஏஎஃபஎஸ": 7306,
      "ஐஎல": 7307,
      "ஒநத": 7308,
      "ஒயன": 7309,
      "ஒவச": 7310,
      "கவழ": 7311,
      "கஸட": 7312,
      "கதரநத": 7313,
      "கசபப": 7314,
      "கஞசர": 7315,
      "கஜகஸதன": 7316,
      "சணம": 7317,
      "சககள": 7318,
      "சஹர": 7319,
      "சஃப": 7320,
      "சபஸ": 7321,
      "சசலல": 7322,
      "சஞசல": 7323,
      "சஜத": 7324,
      "சஐஎஸ": 7325,
      "சஞசவ": 7326,
      "ஜநத": 7327,
      "ஜஙக": 7328,
      "ஜபல": 7329,
      "ஜவட": 7330,
      "ஜனம": 7331,
      "ஜலல": 7332,
      "ஜசன": 7333,
      "ஜஷன": 7334,
      "ஜஃபர": 7335,
      "ஜகங": 7336,
      "ஜஃபரட": 7337,
      "ஜஹத": 7338,
      "ஜஎஸட": 7339,
      "ஞயற": 7340,
      "டஏ": 7341,
      "டஓ": 7342,
      "டமன": 7343,
      "டயம": 7344,
      "டகலம": 7345,
      "டஃபன": 7346,
      "டஎமச": 7347,
      "தமக": 7348,
      "தவரதத": 7349,
      "தபபடதத": 7350,
      "தவலக": 7351,
      "தககபபடடதக": 7352,
      "நககபபடட": 7353,
      "நகய": 7354,
      "நசவ": 7355,
      "நஙகர": 7356,
      "நசகக": 7357,
      "நபணம": 7358,
      "நவஸ": 7359,
      "நசபப": 7360,
      "நகபர": 7361,
      "நககபபடடளளர": 7362,
      "னத": 7363,
      "பசல": 7364,
      "பகரம": 7365,
      "பசயத": 7366,
      "பஃப": 7367,
      "பசமபத": 7368,
      "பஃபட": 7369,
      "மஷ": 7370,
      "மளள": 7371,
      "மவம": 7372,
      "மதரவ": 7373,
      "மநதரம": 7374,
      "மஜம": 7375,
      "மகரஷ": 7376,
      "யள": 7377,
      "யநத": 7378,
      "யவம": 7379,
      "யஜன": 7380,
      "யதகக": 7381,
      "யசகக": 7382,
      "ரமன": 7383,
      "ரசச": 7384,
      "ரமல": 7385,
      "ரவச": 7386,
      "ரமம": 7387,
      "ரடடர": 7388,
      "ரசததர": 7389,
      "ரபபள": 7390,
      "ரடல": 7391,
      "ரஃபல": 7392,
      "ரவணடர": 7393,
      "லசன": 7394,
      "லஙகர": 7395,
      "லஙகன": 7396,
      "ளகள": 7397,
      "வவம": 7398,
      "வததளளத": 7399,
      "வகடர": 7400,
      "வகககவம": 7401,
      "வககபபடடளளர": 7402,
      "வககபபடடளளனர": 7403,
      "வஆரஎஸ": 7404,
      "ஷஜ": 7405,
      "ஷப": 7406,
      "ஷள": 7407,
      "ஷபட": 7408,
      "ஷரதத": 7409,
      "ஸய": 7410,
      "ஸவட": 7411,
      "ஸகடட": 7412,
      "ஸவச": 7413,
      "ஸபரடஸ": 7414,
      "ஹசர": 7415,
      "ஹமத": 7416,
      "ஹமம": 7417,
      "ஹஃப": 7418,
      "ஹஸடன": 7419,
      "ஹமலஸ": 7420,
      "ககஸ": 7421,
      "ககனர": 7422,
      "கககடட": 7423,
      "ககடம": 7424,
      "பபபடம": 7425,
      "பபஎஃ": 7426,
      "வரஜ": 7427,
      "வரவறற": 7428,
      "வரகளலரநத": 7429,
      "வரகடவ": 7430,
      "வரவதபப": 7431,
      "வரககடல": 7432,
      "நதயலரநத": 7433,
      "ததவட": 7434,
      "ததகத": 7435,
      "டடஎம": 7436,
      "டடததறகன": 7437,
      "களளம": 7438,
      "களஸடர": 7439,
      "பரந": 7440,
      "பரபர": 7441,
      "பரதர": 7442,
      "பரலம": 7443,
      "பரஙகள": 7444,
      "பரககம": 7445,
      "பரகல": 7446,
      "பரதக": 7447,
      "பரபகர": 7448,
      "பரசட": 7449,
      "பரபஸ": 7450,
      "பரவயத": 7451,
      "பரமறவ": 7452,
      "பரலமப": 7453,
      "அவரகளம": 7454,
      "தரங": 7455,
      "தரகம": 7456,
      "தரவக": 7457,
      "தரசட": 7458,
      "தரடய": 7459,
      "கரமக": 7460,
      "கரபல": 7461,
      "கரபபர": 7462,
      "கரகளம": 7463,
      "கரமனத": 7464,
      "சயரஸ": 7465,
      "ணடகர": 7466,
      "படமன": 7467,
      "படகன": 7468,
      "படககழ": 7469,
      "படசமக": 7470,
      "படஙகளடன": 7471,
      "இரட": 7472,
      "இரநதரநதல": 7473,
      "எனபதல": 7474,
      "எனசபய": 7475,
      "என95": 7476,
      "மனமன": 7477,
      "மனகறர": 7478,
      "மனககளயம": 7479,
      "ஙகஸ": 7480,
      "பபடலம": 7481,
      "பபடகல": 7482,
      "பபடதப": 7483,
      "பபடகறத": 7484,
      "கடககவம": 7485,
      "கடமடட": 7486,
      "கடயரநத": 7487,
      "கடததளளர": 7488,
      "கடபவர": 7489,
      "கடகபர": 7490,
      "கடசயயம": 7491,
      "கடயறறம": 7492,
      "இநதததவ": 7493,
      "வமத": 7494,
      "பதலல": 7495,
      "பதககபபடம": 7496,
      "சலச": 7497,
      "சலயர": 7498,
      "சலகளலம": 7499,
      "சலயரம": 7500,
      "மறறயளளனர": 7501,
      "மறறககடய": 7502,
      "சரதன": 7503,
      "சரகல": 7504,
      "சரமற": 7505,
      "சரககபபடடளளத": 7506,
      "சரககவலல": 7507,
      "சரககபபடடன": 7508,
      "சரகபபட": 7509,
      "மகவ": 7510,
      "மகபபற": 7511,
      "மகபவன": 7512,
      "பலவறற": 7513,
      "பலககடட": 7514,
      "பலகச": 7515,
      "வலகளடன": 7516,
      "வலயடன": 7517,
      "வலகளககக": 7518,
      "இதழ": 7519,
      "இதவ": 7520,
      "இதலரநத": 7521,
      "வடதல": 7522,
      "வடபபடட": 7523,
      "வடததளளர": 7524,
      "வடகளலரநத": 7525,
      "வடவததயம": 7526,
      "கறய": 7527,
      "கறவக": 7528,
      "கறதற": 7529,
      "கறவபப": 7530,
      "கறயளளன": 7531,
      "கறயதக": 7532,
      "கறசசற": 7533,
      "வளநத": 7534,
      "வளமப": 7535,
      "வளககய": 7536,
      "வளசசம": 7537,
      "யரகளம": 7538,
      "யரககறரகள": 7539,
      "தலசச": 7540,
      "தலதரம": 7541,
      "நடன": 7542,
      "நடஸ": 7543,
      "நடககம": 7544,
      "நடபன": 7545,
      "நடகடட": 7546,
      "நடமடம": 7547,
      "நடரஜன": 7548,
      "அதபல": 7549,
      "மரல": 7550,
      "மரபல": 7551,
      "மரககடட": 7552,
      "மரஙகளயம": 7553,
      "மரகரட": 7554,
      "ககமல": 7555,
      "பறர": 7556,
      "பறழ": 7557,
      "பறநகர": 7558,
      "பறவதக": 7559,
      "பறபபடடன": 7560,
      "மடககபபடட": 7561,
      "மடககபபடடளளத": 7562,
      "மடகரணட": 7563,
      "மடணடகர": 7564,
      "வதவத": 7565,
      "வதகளயம": 7566,
      "வழபடட": 7567,
      "வழவலல": 7568,
      "வழகறர": 7569,
      "வழததயளளர": 7570,
      "கமலநத": 7571,
      "கமடடல": 7572,
      "பபடடல": 7573,
      "பபடடவ": 7574,
      "பபடடயல": 7575,
      "பபடடதலரநத": 7576,
      "பனப": 7577,
      "பனவஙக": 7578,
      "கலங": 7579,
      "கலப": 7580,
      "கலர": 7581,
      "கலணட": 7582,
      "கலஙக": 7583,
      "கலவன": 7584,
      "கலஙகம": 7585,
      "கலதப": 7586,
      "கலயலம": 7587,
      "தடதல": 7588,
      "தடககவம": 7589,
      "பயவ": 7590,
      "பயஷ": 7591,
      "பயஸ": 7592,
      "பயபபடவலல": 7593,
      "பயடக": 7594,
      "கழவவ": 7595,
      "கழககபபடம": 7596,
      "நனபப": 7597,
      "நனபபர": 7598,
      "கதமர": 7599,
      "கதகல": 7600,
      "கதயக": 7601,
      "கதபததர": 7602,
      "கதநயக": 7603,
      "ககளலம": 7604,
      "நரபபட": 7605,
      "நரமத": 7606,
      "நரததள": 7607,
      "நரவயக": 7608,
      "பபதற": 7609,
      "பபதயம": 7610,
      "பபதகவம": 7611,
      "அனஸ": 7612,
      "அனசர": 7613,
      "அனடன": 7614,
      "அனபளள": 7615,
      "மறவலல": 7616,
      "மறவதக": 7617,
      "மறயளளர": 7618,
      "மதயர": 7619,
      "மதபபடட": 7620,
      "மதககவலல": 7621,
      "மதஙகளம": 7622,
      "கடடகற": 7623,
      "கடடககள": 7624,
      "கடடளளர": 7625,
      "கடடவதறகன": 7626,
      "கடடததலம": 7627,
      "கடடஙகளலம": 7628,
      "கடடபபடடரககலம": 7629,
      "லலரநத": 7630,
      "சமமக": 7631,
      "சமயம": 7632,
      "சமசன": 7633,
      "சமணர": 7634,
      "சமமனவர": 7635,
      "படடத": 7636,
      "படடயம": 7637,
      "படடகளயம": 7638,
      "படடபபடபப": 7639,
      "அரமக": 7640,
      "நறப": 7641,
      "நறபயர": 7642,
      "நறவடய": 7643,
      "நறததயளளத": 7644,
      "இலரநத": 7645,
      "வகஷ": 7646,
      "இநதயனஸ": 7647,
      "இநதயவககக": 7648,
      "தவபப": 7649,
      "யலளர": 7650,
      "வணடதல": 7651,
      "மககளடன": 7652,
      "அறயம": 7653,
      "கணவ": 7654,
      "கணபரவ": 7655,
      "வலலயம": 7656,
      "பணமன": 7657,
      "பணகளம": 7658,
      "பணசசம": 7659,
      "பணணடன": 7660,
      "பணயகக": 7661,
      "படததலம": 7662,
      "படததளளத": 7663,
      "படததடன": 7664,
      "படததளளர": 7665,
      "படததலரநத": 7666,
      "சறர": 7667,
      "சறபழ": 7668,
      "சனவடன": 7669,
      "சனஹவ": 7670,
      "பறறவடன": 7671,
      "பறறதகவம": 7672,
      "பறறநயலரநத": 7673,
      "படமககபபட": 7674,
      "வயழ": 7675,
      "வயநட": 7676,
      "வயகம": 7677,
      "வயதம": 7678,
      "அடக": 7679,
      "அடககறர": 7680,
      "அடநதளளத": 7681,
      "அடலஸ": 7682,
      "அடககபபடடளளனர": 7683,
      "ரநதள": 7684,
      "மழகயம": 7685,
      "மழயயம": 7686,
      "வனஃ": 7687,
      "வனகட": 7688,
      "வனதக": 7689,
      "வனததள": 7690,
      "வறகம": 7691,
      "வறபடதத": 7692,
      "தகதத": 7693,
      "ககபபடடர": 7694,
      "மலட": 7695,
      "மலத": 7696,
      "மலதத": 7697,
      "மலகள": 7698,
      "மலபர": 7699,
      "மலபற": 7700,
      "மலபய": 7701,
      "மலவய": 7702,
      "யனக": 7703,
      "நலக": 7704,
      "நலயக": 7705,
      "நலவரம": 7706,
      "அழநத": 7707,
      "அழததளளத": 7708,
      "அழதபட": 7709,
      "அவளடமரநத": 7710,
      "பகவ": 7711,
      "பகபல": 7712,
      "பகபடட": 7713,
      "பகஜன": 7714,
      "பகபடததல": 7715,
      "உரக": 7716,
      "உரவன": 7717,
      "உரயட": 7718,
      "உரவகம": 7719,
      "வழஙகவம": 7720,
      "வழஙகயதறகக": 7721,
      "உணரநத": 7722,
      "அமககபபட": 7723,
      "அமககபபடட": 7724,
      "அமததளளத": 7725,
      "அமததளளர": 7726,
      "தடரவ": 7727,
      "தடரபக": 7728,
      "தடரபடய": 7729,
      "நயவ": 7730,
      "கறறததறகக": 7731,
      "ஏறபடடதல": 7732,
      "ஏறகபபட": 7733,
      "பபரவமன": 7734,
      "வசனம": 7735,
      "வசககள": 7736,
      "வசவசம": 7737,
      "தரவகக": 7738,
      "தரவககவம": 7739,
      "தரவகளம": 7740,
      "தரவககபபடடத": 7741,
      "தரவகளனபட": 7742,
      "கரமததலரநத": 7743,
      "பததலல": 7744,
      "பததடன": 7745,
      "பதததளளத": 7746,
      "மணநரம": 7747,
      "மணரதனம": 7748,
      "சயதவட": 7749,
      "சயதயம": 7750,
      "சயதயக": 7751,
      "சயதகளம": 7752,
      "சயதவடன": 7753,
      "சயதகளலம": 7754,
      "சயதககறபப": 7755,
      "பசஓட": 7756,
      "பசவரஜ": 7757,
      "பயனபடததவதக": 7758,
      "பயனபடததயளளனர": 7759,
      "பயனபடததவதலல": 7760,
      "கபபன": 7761,
      "கபபபடதத": 7762,
      "கபபககக": 7763,
      "சநதபபர": 7764,
      "சநதககக": 7765,
      "சநதததளளனர": 7766,
      "டரணட": 7767,
      "டரசன": 7768,
      "டரகன": 7769,
      "டரயலர": 7770,
      "எழததல": 7771,
      "கனபரனச": 7772,
      "கயழ": 7773,
      "கயவ": 7774,
      "ஆரவல": 7775,
      "அநதன": 7776,
      "அநதமன": 7777,
      "வடடகக": 7778,
      "வடடமக": 7779,
      "வடடதகவம": 7780,
      "வரமபவதலல": 7781,
      "கககப": 7782,
      "எடததர": 7783,
      "எடயடன": 7784,
      "எடயளள": 7785,
      "இறநதரபப": 7786,
      "உதவககட": 7787,
      "ஜனதன": 7788,
      "ஜனபத": 7789,
      "ஜனயர": 7790,
      "அதகரயம": 7791,
      "அதகரததளளனர": 7792,
      "உடககபபட": 7793,
      "உடகரவ": 7794,
      "உடபடடளளத": 7795,
      "இடமப": 7796,
      "இடககபபட": 7797,
      "இடககபபடடன": 7798,
      "இனக": 7799,
      "இனபபடகல": 7800,
      "தவரகக": 7801,
      "தவரபப": 7802,
      "தவரஙகளககம": 7803,
      "அளபபதக": 7804,
      "சதககபபட": 7805,
      "சதககவம": 7806,
      "அலவ": 7807,
      "அலபப": 7808,
      "அலபர": 7809,
      "அலபக": 7810,
      "சவஸ": 7811,
      "சவபரமன": 7812,
      "அனவரகககவம": 7813,
      "ஒனறபட": 7814,
      "ஒனறலரநத": 7815,
      "உலகலய": 7816,
      "மரததவரல": 7817,
      "அதரட": 7818,
      "பதலஃ": 7819,
      "பதலககன": 7820,
      "மகமம": 7821,
      "பரமபர": 7822,
      "பகதயலரநத": 7823,
      "சமபதத": 7824,
      "வஙகபவர": 7825,
      "வஙகயலரநத": 7826,
      "வஙகவதறகன": 7827,
      "இஙகய": 7828,
      "இஙகதன": 7829,
      "தயயம": 7830,
      "தயககம": 7831,
      "ஹரமன": 7832,
      "ஹரஜநதர": 7833,
      "பரடனர": 7834,
      "பரடமரநத": 7835,
      "பரடசகரம": 7836,
      "வளயடபபடடளளத": 7837,
      "நரமயறற": 7838,
      "வவரககபபடடளள": 7839,
      "தயரககம": 7840,
      "தயரமட": 7841,
      "தயரததளளத": 7842,
      "தயரபபதறகன": 7843,
      "பரயத": 7844,
      "பகரபபடட": 7845,
      "கலமக": 7846,
      "கலமம": 7847,
      "அனமதககவம": 7848,
      "கவலபட": 7849,
      "இணநதர": 7850,
      "இணநதளளனர": 7851,
      "அறவககபபடட": 7852,
      "அறவககபபடடளளத": 7853,
      "மடடபபட": 7854,
      "அனறலரநத": 7855,
      "அமரநத": 7856,
      "யடஸ": 7857,
      "எஸஎமஎஸ": 7858,
      "பழக": 7859,
      "பழககள": 7860,
      "பழமழ": 7861,
      "பழயத": 7862,
      "பலசரம": 7863,
      "பலசரடன": 7864,
      "வடகககளன": 7865,
      "தணடபபட": 7866,
      "நபரக": 7867,
      "ஸடயர": 7868,
      "கடமபமக": 7869,
      "நடததபபடட": 7870,
      "நடததளளனர": 7871,
      "நடததவதறகக": 7872,
      "நடதததறகக": 7873,
      "நகரபபற": 7874,
      "எழதவம": 7875,
      "எழதபபடடன": 7876,
      "தலவரகத": 7877,
      "பளடட": 7878,
      "வசரககபபடம": 7879,
      "கடசபபட": 7880,
      "தணணரககள": 7881,
      "சடகஸ": 7882,
      "களவகளககம": 7883,
      "வளவநதளளத": 7884,
      "இயககவம": 7885,
      "இயககபபடம": 7886,
      "மனனஃ": 7887,
      "பலரல": 7888,
      "ஞசகர": 7889,
      "பதகபபற": 7890,
      "பதகபபகவம": 7891,
      "வஷல": 7892,
      "வஷஙடன": 7893,
      "லடச": 7894,
      "ஃபஷர": 7895,
      "மமபயலம": 7896,
      "கவடம": 7897,
      "வரஸடன": 7898,
      "சடடமனற": 7899,
      "சடடபபடடளளத": 7900,
      "சடடயளளனர": 7901,
      "எணணவ": 7902,
      "கணடபடபபதறகக": 7903,
      "நகழதத": 7904,
      "வளரவ": 7905,
      "வளரககபபடம": 7906,
      "மயறசபபர": 7907,
      "மயறசககவலல": 7908,
      "தனமபபடதப": 7909,
      "ரஜபத": 7910,
      "ரஜககள": 7911,
      "பரளதரக": 7912,
      "ஆடகளம": 7913,
      "ரமபர": 7914,
      "உடலறம": 7915,
      "பரவகளக": 7916,
      "பரவகளயம": 7917,
      "பரவவதறகன": 7918,
      "பரவகளகம": 7919,
      "உததரபரதசம": 7920,
      "சககயரநத": 7921,
      "கவனசலர": 7922,
      "பககதத": 7923,
      "பககவதம": 7924,
      "பககததலம": 7925,
      "தஙகவலல": 7926,
      "நறததடன": 7927,
      "நறததபபடடளளன": 7928,
      "தலலவ": 7929,
      "தலலயம": 7930,
      "தலலயமன": 7931,
      "அமரககவல": 7932,
      "அதகமனர": 7933,
      "அதகபடசம": 7934,
      "ஆதரஷ": 7935,
      "ஆதரபப": 7936,
      "ஆதரமக": 7937,
      "ஆதரககவம": 7938,
      "ஆதரவடன": 7939,
      "ஆதரவளகக": 7940,
      "ஆதரவறகக": 7941,
      "வடவமக": 7942,
      "ரஷடர": 7943,
      "பரசசனகளம": 7944,
      "பரசசனயயம": 7945,
      "பரசசனகளலரநத": 7946,
      "அடயலம": 7947,
      "நமபதத": 7948,
      "நமபயளளனர": 7949,
      "பணமதபப": 7950,
      "ஆலவர": 7951,
      "ஆலபபட": 7952,
      "ஆலடரசன": 7953,
      "சயலபடவலல": 7954,
      "ரயலஸ": 7955,
      "ரயலடட": 7956,
      "பரபபபபட": 7957,
      "இழககவம": 7958,
      "இழககறர": 7959,
      "பயணததயம": 7960,
      "பகஸதனம": 7961,
      "சபபடவதலல": 7962,
      "பஜவ": 7963,
      "எதவம": 7964,
      "194": 7965,
      "198": 7966,
      "19ஐ": 7967,
      "19இல": 7968,
      "வரரகளக": 7969,
      "சததபபடதத": 7970,
      "சலததபவர": 7971,
      "உணரல": 7972,
      "தரமபவம": 7973,
      "பஸல": 7974,
      "தடடககரர": 7975,
      "தடடததறக": 7976,
      "சயயபபடடதல": 7977,
      "சயயபபடடதகக": 7978,
      "சயயபபடடவடன": 7979,
      "எலலர": 7980,
      "எலலயலரநத": 7981,
      "ஏறபடததலம": 7982,
      "உடனட": 7983,
      "அனபபபபடடளளத": 7984,
      "அனபபயளளனர": 7985,
      "அனபபபபடடளளர": 7986,
      "தணற": 7987,
      "உறதபபடதபட": 7988,
      "மஹரஷடரவ": 7989,
      "மததலக": 7990,
      "அதரசசயடநதனர": 7991,
      "அளவயம": 7992,
      "கததல": 7993,
      "ரனதப": 7994,
      "தகவலகளயம": 7995,
      "அமதககன": 7996,
      "சரமபப": 7997,
      "மரததவரகளம": 7998,
      "மகனடன": 7999,
      "மகழசசயயம": 8000,
      "பரததபபடடளளத": 8001,
      "பரததயலரநத": 8002,
      "சஙல": 8003,
      "அடததள": 8004,
      "சதரபத": 8005,
      "மனவககம": 8006,
      "நடவரகக": 8007,
      "இனறம": 8008,
      "இனறரவ": 8009,
      "பநதய": 8010,
      "கஷர": 8011,
      "சபஎஸஇ": 8012,
      "சபஅமரன": 8013,
      "எணணககயம": 8014,
      "மனதரடம": 8015,
      "வளளடடடன": 8016,
      "அனபயம": 8017,
      "அனபவககவம": 8018,
      "கரபபமன": 8019,
      "பரவயலல": 8020,
      "ரணல": 8021,
      "ரணவததடன": 8022,
      "வநதத": 8023,
      "தலமக": 8024,
      "கறபபடவம": 8025,
      "கததரஙகள": 8026,
      "கததரககறர": 8027,
      "கததரநதத": 8028,
      "கததரநதன": 8029,
      "வததலம": 8030,
      "கநதநகர": 8031,
      "மகழசசயடற": 8032,
      "மகழசசயடநதர": 8033,
      "மகழசசயடகறரகள": 8034,
      "வளயடடளளர": 8035,
      "உளளய": 8036,
      "சழர": 8037,
      "வததரபப": 8038,
      "வததரககலம": 8039,
      "வததரநதல": 8040,
      "உரமஙகள": 8041,
      "நடடசன": 8042,
      "நடடததளளத": 8043,
      "நடடறகக": 8044,
      "களளபபடடளளனர": 8045,
      "பரடடன": 8046,
      "அபபவ": 8047,
      "நககல": 8048,
      "நககமகம": 8049,
      "கவலதறயடன": 8050,
      "இறநதளளன": 8051,
      "சஙகவர": 8052,
      "சஙகறக": 8053,
      "ரகவதம": 8054,
      "வவசயகளம": 8055,
      "வவசயகளககம": 8056,
      "நளமம": 8057,
      "மரமகள": 8058,
      "அமபபசர": 8059,
      "பதபபககபபட": 8060,
      "ஏறறவற": 8061,
      "பதககபபடடத": 8062,
      "பதககபபடடன": 8063,
      "மறறலமக": 8064,
      "கழவபபட": 8065,
      "படடயலயம": 8066,
      "அரகமட": 8067,
      "பறபபற": 8068,
      "பறபபறகவலல": 8069,
      "சலலவன": 8070,
      "பறமபபட": 8071,
      "தரநதடபபதறகன": 8072,
      "ஐநதம": 8073,
      "வணணஙகளடன": 8074,
      "யலரநதம": 8075,
      "மனனரககக": 8076,
      "சதவதமம": 8077,
      "பரசகளயம": 8078,
      "கபபறறவம": 8079,
      "மறறவரகளககம": 8080,
      "ஆஸதரய": 8081,
      "சவரஜ": 8082,
      "நடகரக": 8083,
      "2019இல": 8084,
      "ஒளசசரகக": 8085,
      "நறவபபடடளளத": 8086,
      "வபபமனம": 8087,
      "பரததரககலம": 8088,
      "ஆபததனதக": 8089,
      "அகறறபபடட": 8090,
      "கடரஸ": 8091,
      "அடபபடகக": 8092,
      "இயககயம": 8093,
      "தஷமகக": 8094,
      "ரணவமம": 8095,
      "ஆளன": 8096,
      "ஆளபபட": 8097,
      "ஆளலல": 8098,
      "சணடகட": 8099,
      "சககலடன": 8100,
      "இசபல": 8101,
      "வவதபபர": 8102,
      "வவதககலம": 8103,
      "ஆயதத": 8104,
      "தகதயடன": 8105,
      "தகதயனவர": 8106,
      "மதரசசயட": 8107,
      "ஏழகளக": 8108,
      "பணடயர": 8109,
      "களதவரக": 8110,
      "களதவரகளம": 8111,
      "களதவரகளடனம": 8112,
      "சயயபபடடளளதக": 8113,
      "சயலமறயக": 8114,
      "பபடடரபபதல": 8115,
      "கயகறகளம": 8116,
      "ஈரககககடய": 8117,
      "ஈரபபதம": 8118,
      "ரயபபர": 8119,
      "அலகசணடர": 8120,
      "ஏறபடடபத": 8121,
      "வரலகயளள": 8122,
      "வரலகயபத": 8123,
      "தரயமல": 8124,
      "டலபன": 8125,
      "டலகரம": 8126,
      "தபவ": 8127,
      "நரமபய": 8128,
      "நரமபயல": 8129,
      "நரமபயளளன": 8130,
      "எசசரததளளத": 8131,
      "எசசரககயடன": 8132,
      "களனகக": 8133,
      "பரககங": 8134,
      "கபமடநதனர": 8135,
      "பரஸபரம": 8136,
      "கதலர": 8137,
      "மகநதன": 8138,
      "வரநதமபல": 8139,
      "உறசகமட": 8140,
      "உறசகமகவம": 8141,
      "வளயறறம": 8142,
      "வளயறறபபடடளளனர": 8143,
      "தரமணததறகக": 8144,
      "வஸதவ": 8145,
      "வனறவர": 8146,
      "சபபதத": 8147,
      "ஆனமகம": 8148,
      "அறகறயகம": 8149,
      "ஆபகனயர": 8150,
      "எறக": 8151,
      "வசலககபபடம": 8152,
      "வசலககபபடகறத": 8153,
      "இபபடய": 8154,
      "ஏதனஸ": 8155,
      "நறவறறயளளத": 8156,
      "சவலக": 8157,
      "ஆரககயததறகம": 8158,
      "அலவலக": 8159,
      "இஙகலநதலரநத": 8160,
      "ஜமனஸடகஸ": 8161,
      "ஹனச": 8162,
      "ஹனன": 8163,
      "தரயறகக": 8164,
      "வடவததளளத": 8165,
      "வடவபபதறகக": 8166,
      "நடனமடம": 8167,
      "மதலமசசரகளம": 8168,
      "மதலமசசரகப": 8169,
      "நறவனஙகளயம": 8170,
      "ஆடசயளரக": 8171,
      "ஸரவஸதவ": 8172,
      "வசதயகவம": 8173,
      "ஜனதபதயம": 8174,
      "அபரதமம": 8175,
      "கடததவடன": 8176,
      "வதநதகளனபட": 8177,
      "மதமளளவ": 8178,
      "தறகசய": 8179,
      "பததசலததன": 8180,
      "வழகடடதலகளயம": 8181,
      "வழகடடதலகளனபட": 8182,
      "அமலபடததபபடடளளத": 8183,
      "ஜபபனயர": 8184,
      "cott": 8185,
      "ஜதபர": 8186,
      "அழததமம": 8187,
      "தடடமடடரநதர": 8188,
      "நபணததவம": 8189,
      "அவசரபபடட": 8190,
      "உடறபகத": 8191,
      "உறதபபடததல": 8192,
      "ஹமசசலம": 8193,
      "உறதயளததரநதர": 8194,
      "சததயமனத": 8195,
      "தரபபடமன": 8196,
      "இளஞரகளடய": 8197,
      "ககலயர": 8198,
      "மழபயரககபபடடளளத": 8199,
      "வயறறபப": 8200,
      "சதவஹன": 8201,
      "ஃபரஹன": 8202,
      "தஙகளககள": 8203,
      "எழபபயத": 8204,
      "மஙகலய": 8205,
      "நகசசவயக": 8206,
      "கபடனக": 8207,
      "களடமரநதம": 8208,
      "மனமழநதளளத": 8209,
      "மறநதவடம": 8210,
      "கணணன": 8211,
      "வணகரகளம": 8212,
      "பழமயன": 8213,
      "உனனதம": 8214,
      "ரதயகவம": 8215,
      "தரடபபட": 8216,
      "அறவறததம": 8217,
      "மலளரகவம": 8218,
      "பணபரயம": 8219,
      "உயரநததக": 8220,
      "தளவகவம": 8221,
      "ஸடடய": 8222,
      "ஸடடயஸ": 8223,
      "மனனறவபப": 8224,
      "கறபனயன": 8225,
      "இறககவட": 8226,
      "பரதநதததவ": 8227,
      "பரநதகளகறரகள": 8228,
      "பரவயறறர": 8229,
      "ஈடபடடளளனர": 8230,
      "மடவடயம": 8231,
      "பரணப": 8232,
      "பரணய": 8233,
      "பனறவறறககன": 8234,
      "கஞசனர": 8235,
      "மஹத": 8236,
      "மஹநதர": 8237,
      "ஹதரஸ": 8238,
      "பதவகவலல": 8239,
      "மரடடததன": 8240,
      "மரடடததனம": 8241,
      "தடடமடவலல": 8242,
      "உடகரநத": 8243,
      "ஐஎஸஐஎஸ": 8244,
      "ஐஎஸஆரஓ": 8245,
      "பஷப": 8246,
      "கரயககடயவ": 8247,
      "கஙடக": 8248,
      "கரளவலரநத": 8249,
      "கயளபபட": 8250,
      "வதததளளன": 8251,
      "பரவமக": 8252,
      "பரநதகளளககள": 8253,
      "வரணக": 8254,
      "படரலயம": 8255,
      "சறகளஞசயம": 8256,
      "கனனட": 8257,
      "அணநதரநதனர": 8258,
      "சகதவயநததக": 8259,
      "மதபபடயத": 8260,
      "சகசசயளர": 8261,
      "தபலகர": 8262,
      "பவனஷவர": 8263,
      "பரவயடவம": 8264,
      "சபரமல": 8265,
      "பஞசதநதர": 8266,
      "யபஎஸச": 8267,
      "அசசறததலக": 8268,
      "மரககனற": 8269,
      "அறயபபடடத": 8270,
      "எழததககளலம": 8271,
      "இஸலமபத": 8272,
      "அஸவமத": 8273,
      "ஊறறபபட": 8274,
      "தமதமனத": 8275,
      "வரபபததடன": 8276,
      "கறஸதவ": 8277,
      "கறஸதவர": 8278,
      "சகசசயளககவம": 8279,
      "ஃபளயங": 8280,
      "ஒடகக": 8281,
      "ஸபனசர": 8282,
      "மரயதககரய": 8283,
      "மனசசரவடநத": 8284,
      "அடமயன": 8285,
      "அடமயக": 8286,
      "ஆசபபடட": 8287,
      "ஒளரக": 8288,
      "படயடதத": 8289,
      "தலககதல": 8290,
      "வறகபபடகறதற": 8291,
      "அமரநதரநதனர": 8292,
      "தபபயடவ": 8293,
      "சளககய": 8294,
      "ஹஙகஙக": 8295,
      "உணரசசவசபபட": 8296,
      "ஏபஏட": 8297,
      "கடபபநத": 8298,
      "பதவயறபர": 8299,
      "இணயதள": 8300,
      "indi": 8301,
      "ஏவதல": 8302,
      "மநதமன": 8303,
      "தரககமன": 8304,
      "கறயதஃ": 8305,
      "நடததயதக": 8306,
      "நடததயதறகக": 8307,
      "நரததயன": 8308,
      "நரததலய": 8309,
      "கடமயனதக": 8310,
      "மசலப": 8311,
      "அவமதபபதக": 8312,
      "உசசரபப": 8313,
      "கசசலட": 8314,
      "பறயளரக": 8315,
      "நறமறகளயம": 8316,
      "ஒடடகசசவங": 8317,
      "பரவயறறவரகளககன": 8318,
      "எமடஎனஎல": 8319,
      "எஞசயரககம": 8320,
      "எஞசயரநதத": 8321,
      "கவனததரககலம": 8322,
      "ஏரளமக": 8323,
      "பரமறபபட": 8324,
      "கடடபபடததபபடடளளத": 8325,
      "சமஜவத": 8326,
      "பணககரரன": 8327,
      "கரனலநத": 8328,
      "நனவரககறத": 8329,
      "ஆரடஓ": 8330,
      "சயலதறனககக": 8331,
      "நகசசவயச": 8332,
      "பஹரன": 8333,
      "கடலரப": 8334,
      "அறநதரநதனர": 8335,
      "நலயததலரநத": 8336,
      "சதகமன": 8337,
      "கடடயபட": 8338,
      "நறவடநதளளன": 8339,
      "எரசசலட": 8340,
      "வரகதயடநத": 8341,
      "சஏஏவ": 8342,
      "கடவசசடட": 8343,
      "தகஷசல": 8344,
      "பழதபரககவம": 8345,
      "வநதணககள": 8346,
      "வததயசமனவர": 8347,
      "தனபபபடகற": 8348,
      "aaaa": 8349,
      "சவயகம": 8350,
      "வயதடய": 8351,
      "வயதடயவர": 8352,
      "அமரநதரககறத": 8353,
      "வளரசசயடயம": 8354,
      "உமஷ": 8355,
      "எலசபதத": 8356,
      "நமபககயடன": 8357,
      "இததலய": 8358,
      "கமனவலத": 8359,
      "சஃம": 8360,
      "சககமல": 8361,
      "மறகளளபபடம": 8362,
      "eds": 8363,
      "அலலஹவ": 8364,
      "ஆயதஙகள": 8365,
      "கயகவட": 8366,
      "ஜஹஙகர": 8367,
      "கரகரமல": 8368,
      "வளககபபடததலரநத": 8369,
      "பனமகததனம": 8370,
      "மறசரமபப": 8371,
      "ஆகரஷமக": 8372,
      "கசநதளளத": 8373,
      "ரஃபளம": 8374,
      "வரககதர": 8375,
      "வலககடடயம": 8376,
      "வலககடடயமக": 8377,
      "மடடபபடததட": 8378,
      "இயககயளள": 8379,
      "இயககயளளர": 8380,
      "பரமரபபளரக": 8381,
      "தரதரஷடவசமனத": 8382,
      "பலஸதனயரகளககம": 8383,
      "ஒததரகக": 8384,
      "கககரலட": 8385,
      "கலவதயன": 8386,
      "கலபரனயல": 8387,
      "ஆரஆரஆர": 8388,
      "இணககமக": 8389,
      "அறமகபபடததயளளத": 8390,
      "பயமறதத": 8391,
      "சஆரபஎஃ": 8392,
      "கவரசசகரமனதக": 8393,
      "தரவனநதப": 8394,
      "தரவனநதபரம": 8395,
      "ஓசஐ": 8396,
      "கடவசசலல": 8397,
      "அனநதநக": 8398,
      "தழமயனவர": 8399,
      "deeds": 8400,
      "வயரவ": 8401,
      "தரபபடததறகக": 8402,
      "எனபவரல": 8403,
      "சரநதவரகளம": 8404,
      "ஆரஏடட": 8405,
      "மஜஹதன": 8406,
      "அவகசம": 8407,
      "அஸடரஜனக": 8408,
      "நகழநதளளன": 8409,
      "ரசசரட": 8410,
      "ஹபபரசன": 8411,
      "வமரசததளளனர": 8412,
      "நடசமதரம": 8413,
      "அரவரபபனத": 8414,
      "அறவசகசச": 8415,
      "கறறஞசடட": 8416,
      "சநததயனர": 8417,
      "எடஜரட": 8418,
      "இனசலடடர": 8419,
      "பகரநதரநதர": 8420,
      "தழழலட": 8421,
      "எலகடரஷ": 8422,
      "சபநயகர": 8423,
      "ஜயஸவல": 8424,
      "நலலணககம": 8425,
      "boycott": 8426,
      "aiscd": 8427,
      "அவயவனஃ": 8428,
      "அஸதமனம": 8429,
      "ஜவடகர": 8430,
      "நஙகரமட": 8431,
      "பசயதவத": 8432,
      "ரவசஙகர": 8433,
      "டடஎமஏ": 8434,
      "படககழவனர": 8435,
      "அனடனய": 8436,
      "பணயககத": 8437,
      "சறபழவ": 8438,
      "பணமதபபழபப": 8439,
      "பரதநதததவபபடதத": 8440,
      "வறகபபடகறதறபட": 8441,
      "indian": 8442,
      "ஒடடகசசவஙளகள": 8443,
      "0கள": 8444,
      "0இல": 8445,
      "13": 8446,
      "1வத": 8447,
      "1000": 8448,
      "1000ககம": 8449,
      "28": 8450,
      "2ல": 8451,
      "35": 8452,
      "3ஆம": 8453,
      "300ககம": 8454,
      "47": 8455,
      "40ககம": 8456,
      "50": 8457,
      "5ககம": 8458,
      "6இல": 8459,
      "7ல": 8460,
      "7ஆம": 8461,
      "700ககம": 8462,
      "8வத": 8463,
      "8ஆம": 8464,
      "aj": 8465,
      "ap": 8466,
      "bh": 8467,
      "ck": 8468,
      "ep": 8469,
      "ex": 8470,
      "ia": 8471,
      "le": 8472,
      "ma": 8473,
      "mb": 8474,
      "me": 8475,
      "ol": 8476,
      "ow": 8477,
      "ru": 8478,
      "sa": 8479,
      "ti": 8480,
      "x7": 8481,
      "ஃபபர": 8482,
      "ஃபசஸ": 8483,
      "அகழ": 8484,
      "அபபர": 8485,
      "அஙகம": 8486,
      "அசத": 8487,
      "அமரதத": 8488,
      "அகறறம": 8489,
      "அததத": 8490,
      "அகரவ": 8491,
      "அபரர": 8492,
      "அஞசய": 8493,
      "அசதஷ": 8494,
      "அஷலல": 8495,
      "அபகயல": 8496,
      "ஆஙக": 8497,
      "ஆசபபட": 8498,
      "ஆசதத": 8499,
      "ஆடடர": 8500,
      "ஆமஸடர": 8501,
      "இஏ": 8502,
      "இகள": 8503,
      "இகர": 8504,
      "இஎன": 8505,
      "இடர": 8506,
      "இபபடம": 8507,
      "இகஸ": 8508,
      "ஈற": 8509,
      "ஈடன": 8510,
      "ஈஷவ": 8511,
      "உமழ": 8512,
      "உளளன": 8513,
      "உபகர": 8514,
      "உதயம": 8515,
      "உதரண": 8516,
      "ஊசலட": 8517,
      "எஜ": 8518,
      "எதற": 8519,
      "எயடன": 8520,
      "ஏச": 8521,
      "ஏஜ": 8522,
      "ஏஸ": 8523,
      "ஏஏட": 8524,
      "ஏபவ": 8525,
      "ஏபயட": 8526,
      "ஐஐ": 8527,
      "ஐவர": 8528,
      "ஐலன": 8529,
      "ஐஏஎஸ": 8530,
      "ஒசம": 8531,
      "ஒபபடதத": 8532,
      "ஓஎஃ": 8533,
      "ஓபயம": 8534,
      "கஹ": 8535,
      "கவணட": 8536,
      "கவய": 8537,
      "கயன": 8538,
      "கதரவ": 8539,
      "கபடல": 8540,
      "கபரன": 8541,
      "கததயளளர": 8542,
      "கதடரல": 8543,
      "ஙச": 8544,
      "ஙஙக": 8545,
      "ஙககம": 8546,
      "சபத": 8547,
      "சககட": 8548,
      "சபரய": 8549,
      "சபரஸ": 8550,
      "சஹன": 8551,
      "சஃபர": 8552,
      "சஐச": 8553,
      "ஜ7": 8554,
      "ஜதர": 8555,
      "ஜகர": 8556,
      "ஜயர": 8557,
      "ஜமர": 8558,
      "ஜககம": 8559,
      "ஜகம": 8560,
      "ஜசநத": 8561,
      "ஜககட": 8562,
      "டவல": 8563,
      "டயன": 8564,
      "டகன": 8565,
      "டஎஸ": 8566,
      "டககடட": 8567,
      "டகடகக": 8568,
      "டஏஐ": 8569,
      "டஐஜ": 8570,
      "டகடரக": 8571,
      "தஹ": 8572,
      "தவம": 8573,
      "தமப": 8574,
      "தளளன": 8575,
      "தஙகர": 8576,
      "தநதம": 8577,
      "தஙகளக": 8578,
      "தஜஸ": 8579,
      "தஙகக": 8580,
      "தசடஸ": 8581,
      "நஸ": 8582,
      "நபல": 8583,
      "நவத": 8584,
      "நவச": 8585,
      "நவரதத": 8586,
      "நபதல": 8587,
      "நககபபடடளளத": 8588,
      "நபகன": 8589,
      "நஷடம": 8590,
      "நவப": 8591,
      "நஸரன": 8592,
      "னட": 8593,
      "னலம": 8594,
      "பஐ": 8595,
      "பவட": 8596,
      "பசன": 8597,
      "பசசர": 8598,
      "பஎல": 8599,
      "பவஷ": 8600,
      "பஏட": 8601,
      "பதனர": 8602,
      "பஐட": 8603,
      "பஎமட": 8604,
      "பஐஜ": 8605,
      "மங": 8606,
      "மபர": 8607,
      "மபபத": 8608,
      "மசன": 8609,
      "மவய": 8610,
      "மவன": 8611,
      "மயன": 8612,
      "மபதல": 8613,
      "மஜர": 8614,
      "மவடன": 8615,
      "மஹல": 8616,
      "மவநதர": 8617,
      "யசததர": 8618,
      "யதரததம": 8619,
      "ரதன": 8620,
      "ரமப": 8621,
      "ரகன": 8622,
      "ரககர": 8623,
      "ரபகக": 8624,
      "ரயவ": 8625,
      "ரயத": 8626,
      "ரடடல": 8627,
      "ரகடர": 8628,
      "ரவசச": 8629,
      "லபட": 8630,
      "லஙக": 8631,
      "லசச": 8632,
      "லடம": 8633,
      "லவண": 8634,
      "லபள": 8635,
      "லததன": 8636,
      "லபஸ": 8637,
      "லஹல": 8638,
      "ளககறத": 8639,
      "வஹ": 8640,
      "வவக": 8641,
      "வபபதக": 8642,
      "வககபபடடத": 8643,
      "வககரம": 8644,
      "வஏட": 8645,
      "வதலரநத": 8646,
      "வபவ": 8647,
      "வஹப": 8648,
      "வகடரய": 8649,
      "வதரப": 8650,
      "வஙககளம": 8651,
      "ஷஹ": 8652,
      "ஷகக": 8653,
      "ஷவம": 8654,
      "ஷஹர": 8655,
      "ஷகவ": 8656,
      "ஷரன": 8657,
      "ஷரய": 8658,
      "ஷஹன": 8659,
      "ஸபட": 8660,
      "ஸமன": 8661,
      "ஸபனனர": 8662,
      "ஹவல": 8663,
      "ஹவஸ": 8664,
      "ககயன": 8665,
      "ககணடம": 8666,
      "பபஸ": 8667,
      "பபபர": 8668,
      "பபசச": 8669,
      "பபநதர": 8670,
      "பபககக": 8671,
      "வரஷ": 8672,
      "வரவம": 8673,
      "வரசல": 8674,
      "வரகற": 8675,
      "வரபபடட": 8676,
      "வரனர": 8677,
      "வரமம": 8678,
      "வரரம": 8679,
      "வரகளககம": 8680,
      "வரநதபத": 8681,
      "வரபவர": 8682,
      "வரபபக": 8683,
      "வரவதறகம": 8684,
      "வரபடததயம": 8685,
      "நதட": 8686,
      "நதயன": 8687,
      "நதககர": 8688,
      "நததகவம": 8689,
      "ததழ": 8690,
      "ததடடம": 8691,
      "ததடம": 8692,
      "தததகக": 8693,
      "தததலல": 8694,
      "ததளளம": 8695,
      "களஙகள": 8696,
      "களகறரகள": 8697,
      "களததட": 8698,
      "களககத": 8699,
      "களஞசயம": 8700,
      "பரககள": 8701,
      "பரவக": 8702,
      "பரயக": 8703,
      "பரபபர": 8704,
      "பரசநத": 8705,
      "பரககட": 8706,
      "பரலரநத": 8707,
      "பரமனன": 8708,
      "பரசதத": 8709,
      "பரசரம": 8710,
      "பரசஙக": 8711,
      "பரநறவன": 8712,
      "பரஃபல": 8713,
      "பரஹத": 8714,
      "பரமனக": 8715,
      "றறகம": 8716,
      "அவரத": 8717,
      "அவரகளககள": 8718,
      "தரந": 8719,
      "தரவர": 8720,
      "தரககம": 8721,
      "தரகல": 8722,
      "தரசசர": 8723,
      "தரபபர": 8724,
      "தரதம": 8725,
      "தரகறர": 8726,
      "தரககய": 8727,
      "தரஹம": 8728,
      "தரபசண": 8729,
      "தரமகல": 8730,
      "கரச": 8731,
      "கரஹ": 8732,
      "கரவர": 8733,
      "கரகள": 8734,
      "கரனர": 8735,
      "கரலல": 8736,
      "கரவய": 8737,
      "கரமல": 8738,
      "கரஜன": 8739,
      "கரததம": 8740,
      "கரஜல": 8741,
      "கரதவய": 8742,
      "சயமக": 8743,
      "சயடச": 8744,
      "சயவதகம": 8745,
      "படஐ": 8746,
      "படஙக": 8747,
      "படனம": 8748,
      "படகம": 8749,
      "படநல": 8750,
      "படயடன": 8751,
      "படபபடவலல": 8752,
      "படபபதறகக": 8753,
      "இரபத": 8754,
      "இரபபர": 8755,
      "இரஜதநதர": 8756,
      "எனடர": 8757,
      "மனசய": 8758,
      "மனநற": 8759,
      "மனகலம": 8760,
      "மனநறவ": 8761,
      "ஙகதத": 8762,
      "ஙகறகக": 8763,
      "ஒரச": 8764,
      "பபடகறர": 8765,
      "தனனல": 8766,
      "தனனற": 8767,
      "தனககல": 8768,
      "தனஷக": 8769,
      "கடய": 8770,
      "கடஅவ": 8771,
      "கடகளக": 8772,
      "கடககல": 8773,
      "கடழபப": 8774,
      "கடககணகக": 8775,
      "கடசயலரநத": 8776,
      "கடகககடய": 8777,
      "இநததத": 8778,
      "லமல": 8779,
      "ஙகளகக": 8780,
      "ஙகளககட": 8781,
      "ஙகளடமரநத": 8782,
      "வமக": 8783,
      "வமரசன": 8784,
      "பதள": 8785,
      "பதடட": 8786,
      "பதறற": 8787,
      "பதயம": 8788,
      "பதவள": 8789,
      "பதசச": 8790,
      "பதவய": 8791,
      "பதயக": 8792,
      "பதகளக": 8793,
      "பதறகக": 8794,
      "பதமககளம": 8795,
      "பதகவலர": 8796,
      "சலன": 8797,
      "சலஸ": 8798,
      "சலவர": 8799,
      "சலநத": 8800,
      "சலகர": 8801,
      "சலலம": 8802,
      "சலவனம": 8803,
      "சலகளம": 8804,
      "சலவதக": 8805,
      "சலவதறகக": 8806,
      "சலலமப": 8807,
      "சலஷய": 8808,
      "மறறத": 8809,
      "மறறஙகளயம": 8810,
      "மறறவதறகன": 8811,
      "மறறபபடடளளனர": 8812,
      "மறறததறகன": 8813,
      "சரந": 8814,
      "சரகம": 8815,
      "சரபன": 8816,
      "சரபபர": 8817,
      "சரககய": 8818,
      "சரககலம": 8819,
      "சரநதளளத": 8820,
      "சரககபபடடளளன": 8821,
      "சரணர": 8822,
      "சரதரதத": 8823,
      "சரசசயக": 8824,
      "சரமதஙக": 8825,
      "மகதத": 8826,
      "மகஙகள": 8827,
      "மகபரம": 8828,
      "மகபபடதத": 8829,
      "மகவரர": 8830,
      "மகபரதம": 8831,
      "மகததயம": 8832,
      "பலபப": 8833,
      "பலவடட": 8834,
      "பலலர": 8835,
      "பலஜயம": 8836,
      "வலச": 8837,
      "வலட": 8838,
      "வலவக": 8839,
      "வலககக": 8840,
      "வலஙகம": 8841,
      "வலகளயம": 8842,
      "வலயலம": 8843,
      "வலடமர": 8844,
      "வடபட": 8845,
      "வடபற": 8846,
      "வடபன": 8847,
      "வடவலல": 8848,
      "வடபரட": 8849,
      "கறம": 8850,
      "கறவலல": 8851,
      "கறககபபடம": 8852,
      "கறததளளத": 8853,
      "கறககமற": 8854,
      "கறஸடயன": 8855,
      "கறயரககறர": 8856,
      "வளகட": 8857,
      "வளயம": 8858,
      "வளபபடட": 8859,
      "வளவக": 8860,
      "வளககவம": 8861,
      "வளமனதக": 8862,
      "யரட": 8863,
      "யரயம": 8864,
      "யரககள": 8865,
      "யரடனம": 8866,
      "தலநத": 8867,
      "தலலல": 8868,
      "தலயடட": 8869,
      "தலவணஙக": 8870,
      "நடச": 8871,
      "நடஷ": 8872,
      "நடககவம": 8873,
      "நடகயம": 8874,
      "நடபடன": 8875,
      "நடலஸ": 8876,
      "நடநதரநதத": 8877,
      "னமட": 8878,
      "னமமப": 8879,
      "உளவள": 8880,
      "உளநழ": 8881,
      "அதட": 8882,
      "அதவம": 8883,
      "அதறகம": 8884,
      "அதசமயம": 8885,
      "மரணட": 8886,
      "மரகன": 8887,
      "மரகடடபபட": 8888,
      "மரமகன": 8889,
      "மரலநத": 8890,
      "மரகலட": 8891,
      "மரஙகதத": 8892,
      "பறககம": 8893,
      "பறககபபட": 8894,
      "பறககபபடட": 8895,
      "பறககபபடம": 8896,
      "பறபபடவலல": 8897,
      "பறமயடன": 8898,
      "மடசம": 8899,
      "மடககபபடம": 8900,
      "மடததளளர": 8901,
      "மடககபபடடத": 8902,
      "மடயளளன": 8903,
      "மடஙககம": 8904,
      "வதயக": 8905,
      "வதகளம": 8906,
      "வதககபபடடளளன": 8907,
      "வதகளலரநத": 8908,
      "வதமறகளனபட": 8909,
      "வழயம": 8910,
      "வழதவ": 8911,
      "வழககட": 8912,
      "வழநதட": 8913,
      "கமங": 8914,
      "கமலம": 8915,
      "கமபத": 8916,
      "கமமனஸ": 8917,
      "பபடடலம": 8918,
      "பபடடககர": 8919,
      "பனஜ": 8920,
      "பனதர": 8921,
      "பனபத": 8922,
      "பனசர": 8923,
      "பனசன": 8924,
      "பனஹல": 8925,
      "பனதஙகய": 8926,
      "கலக": 8927,
      "கலஸ": 8928,
      "கலகல": 8929,
      "கலவக": 8930,
      "கலயன": 8931,
      "கலநல": 8932,
      "கலடஸ": 8933,
      "கலததடன": 8934,
      "கலததலம": 8935,
      "கலஷன": 8936,
      "கலகபபர": 8937,
      "தடத": 8938,
      "தடகள": 8939,
      "தடமன": 8940,
      "தடபபடட": 8941,
      "தடககபபட": 8942,
      "பயத": 8943,
      "பயகக": 8944,
      "பயகள": 8945,
      "பயணட": 8946,
      "பயசச": 8947,
      "பயனல": 8948,
      "பயயனத": 8949,
      "பயஜங": 8950,
      "பயடககன": 8951,
      "கழகம": 8952,
      "கழவக": 8953,
      "கழககபபட": 8954,
      "கழவறக": 8955,
      "நனப": 8956,
      "நனவத": 8957,
      "நனகம": 8958,
      "நனனர": 8959,
      "நனககவம": 8960,
      "நனவடம": 8961,
      "சசணட": 8962,
      "சசநதர": 8963,
      "கதண": 8964,
      "கதபப": 8965,
      "கதமப": 8966,
      "கதககவம": 8967,
      "கதகளயம": 8968,
      "நரதய": 8969,
      "நரவகக": 8970,
      "நரவளம": 8971,
      "நரயணம": 8972,
      "பபதகக": 8973,
      "அனமனம": 8974,
      "அனலக": 8975,
      "மறம": 8976,
      "மறமன": 8977,
      "மறசர": 8978,
      "மறதல": 8979,
      "மறககபபடட": 8980,
      "மறநதர": 8981,
      "மறகறர": 8982,
      "மறவடவம": 8983,
      "மறததளளர": 8984,
      "மறகணடளளத": 8985,
      "மறநதரநத": 8986,
      "மறவடம": 8987,
      "மறபபக": 8988,
      "மறயதக": 8989,
      "மதச": 8990,
      "மதமன": 8991,
      "மதசசர": 8992,
      "மதபபர": 8993,
      "மதககறர": 8994,
      "கடடமம": 8995,
      "கடடரம": 8996,
      "கடடவதக": 8997,
      "கடடடக": 8998,
      "கடடஙகளக": 8999,
      "கடடததறக": 9000,
      "கடடபபடடரககம": 9001,
      "லலலப": 9002,
      "சமஹ": 9003,
      "சமணட": 9004,
      "சமவல": 9005,
      "சமககறர": 9006,
      "சமககபபடம": 9007,
      "சமணடஸ": 9008,
      "சமயகத": 9009,
      "படடண": 9010,
      "படடபபட": 9011,
      "படடலம": 9012,
      "படடககக": 9013,
      "படடகளம": 9014,
      "படடககன": 9015,
      "படடஷட": 9016,
      "படடயடன": 9017,
      "படடகளலம": 9018,
      "அரசசன": 9019,
      "அரஜகம": 9020,
      "நறகர": 9021,
      "நறநதளளத": 9022,
      "நறகவம": 9023,
      "நறததறகன": 9024,
      "இலக": 9025,
      "இலப": 9026,
      "இலபகர": 9027,
      "இலகளககம": 9028,
      "இலடசயம": 9029,
      "வகஜன": 9030,
      "வகதரம": 9031,
      "வகமனம": 9032,
      "வகஜனம": 9033,
      "இநதயவடம": 9034,
      "கணடபத": 9035,
      "கணடமர": 9036,
      "கணடவரக": 9037,
      "தவறற": 9038,
      "தவயன": 9039,
      "டனஷ": 9040,
      "வணடஜ": 9041,
      "வணடல": 9042,
      "ததரபபத": 9043,
      "அறக": 9044,
      "அறவள": 9045,
      "அறயல": 9046,
      "அறகண": 9047,
      "அறயலம": 9048,
      "அறநதவர": 9049,
      "அறவககவலல": 9050,
      "அறவறறல": 9051,
      "டமல": 9052,
      "கணஙக": 9053,
      "கணகட": 9054,
      "கணவய": 9055,
      "கணககடட": 9056,
      "கணசமக": 9057,
      "கணமடநத": 9058,
      "வலலவலல": 9059,
      "வலலரச": 9060,
      "பணத": 9061,
      "பணதல": 9062,
      "பணபடட": 9063,
      "பணபரநத": 9064,
      "பணகளடன": 9065,
      "பணகளககன": 9066,
      "பணகளககக": 9067,
      "படததறகக": 9068,
      "படததவரக": 9069,
      "சறவடட": 9070,
      "சனக": 9071,
      "சனகர": 9072,
      "சனசர": 9073,
      "சனயல": 9074,
      "சனனல": 9075,
      "சனடர": 9076,
      "சனபங": 9077,
      "தறகபப": 9078,
      "தறககபபடடளளத": 9079,
      "பறறரநதர": 9080,
      "படமகக": 9081,
      "வயன": 9082,
      "வயலம": 9083,
      "வயததக": 9084,
      "அடககபபடட": 9085,
      "அடககல": 9086,
      "அடககபபடடளளர": 9087,
      "வறறககம": 9088,
      "வறறடன": 9089,
      "வறறலரநத": 9090,
      "மழகவ": 9091,
      "மழகளலம": 9092,
      "வளயலம": 9093,
      "வனய": 9094,
      "வனகர": 9095,
      "வனயல": 9096,
      "வனறறகம": 9097,
      "வறககவம": 9098,
      "வறகன": 9099,
      "வறததனமக": 9100,
      "வறசசட": 9101,
      "தகன": 9102,
      "தகஷன": 9103,
      "ககபபடடரககலம": 9104,
      "மலகக": 9105,
      "மலபப": 9106,
      "மலகளலம": 9107,
      "மலஹதர": 9108,
      "மலநககய": 9109,
      "மலவனதக": 9110,
      "மதலவதக": 9111,
      "நலததர": 9112,
      "நலவழவ": 9113,
      "அழதன": 9114,
      "அழறச": 9115,
      "அழககபபடடளளன": 9116,
      "பகபடபப": 9117,
      "பகபடகக": 9118,
      "சசயறறவர": 9119,
      "உரத": 9120,
      "உரஸ": 9121,
      "உரயடன": 9122,
      "உரகதல": 9123,
      "உரவககம": 9124,
      "வழஙகவதகம": 9125,
      "அலலதவர": 9126,
      "உணவட": 9127,
      "அமச": 9128,
      "அமநதளளன": 9129,
      "அமபலபபடதத": 9130,
      "இரணடககம": 9131,
      "தடரகளலம": 9132,
      "நயமன": 9133,
      "நயககற": 9134,
      "நயகளம": 9135,
      "கறறடடம": 9136,
      "ஏறதல": 9137,
      "வசகர": 9138,
      "வசதல": 9139,
      "வசபபடட": 9140,
      "வசபபர": 9141,
      "வசகபபடட": 9142,
      "தரவநதர": 9143,
      "கரமகர": 9144,
      "சகச": 9145,
      "சகசன": 9146,
      "சகபதம": 9147,
      "சகவனஸ": 9148,
      "கழநதகளககம": 9149,
      "கழநதகளககக": 9150,
      "கழநதகளடய": 9151,
      "வமனய": 9152,
      "வமனகளம": 9153,
      "வமனததறகள": 9154,
      "மணப": 9155,
      "மணபணட": 9156,
      "சயதகளயம": 9157,
      "சயதயனபட": 9158,
      "நமமட": 9159,
      "பசடட": 9160,
      "பசபபடட": 9161,
      "பசபடட": 9162,
      "பசவதலல": 9163,
      "பசககணடரநதபத": 9164,
      "பயனபடததவலல": 9165,
      "பயனபடததகறரகள": 9166,
      "சநதத": 9167,
      "சநதததர": 9168,
      "ஆணடகலம": 9169,
      "ஆணடரய": 9170,
      "டரவட": 9171,
      "டரயம": 9172,
      "டரனஸ": 9173,
      "கனஸ": 9174,
      "கனடம": 9175,
      "கனவன": 9176,
      "உயரபப": 9177,
      "உயரளளம": 9178,
      "கயதர": 9179,
      "கயடன": 9180,
      "கயததலரநத": 9181,
      "ஆரதர": 9182,
      "ஆரகட": 9183,
      "ஆரகய": 9184,
      "ஆரபபடடககர": 9185,
      "வடடன": 9186,
      "வடடர": 9187,
      "வடடமகவம": 9188,
      "வரமபறக": 9189,
      "வரமபததகத": 9190,
      "பயரலரநத": 9191,
      "தமமல": 9192,
      "தமயநத": 9193,
      "எதரகவம": 9194,
      "எதரகணடளளனர": 9195,
      "எடபபதக": 9196,
      "எடவரட": 9197,
      "எடககமற": 9198,
      "அணகளம": 9199,
      "அணகலம": 9200,
      "அணயபபட": 9201,
      "அணநதளளர": 9202,
      "அணநதரபப": 9203,
      "அணகயளளர": 9204,
      "ததயபத": 9205,
      "இறல": 9206,
      "இறநதர": 9207,
      "இறககவலல": 9208,
      "இறநதரககலம": 9209,
      "உதவனர": 9210,
      "உதவவலல": 9211,
      "உதவககக": 9212,
      "உதவததக": 9213,
      "தடஙகபபட": 9214,
      "தடஙகபபடவலல": 9215,
      "தடஙகயதக": 9216,
      "அவதர": 9217,
      "அவயல": 9218,
      "ளளரகள": 9219,
      "ஜனபர": 9220,
      "ஜனவல": 9221,
      "ஜனடக": 9222,
      "ஜனஜனவல": 9223,
      "அதகரகளக": 9224,
      "அதகரயடம": 9225,
      "அதகரதததக": 9226,
      "உடககவம": 9227,
      "உடபறம": 9228,
      "பறகதன": 9229,
      "வரததமள": 9230,
      "வரததபபடகறரகள": 9231,
      "இடப": 9232,
      "இடவட": 9233,
      "இடஙகளயம": 9234,
      "இடஙகளககம": 9235,
      "இடகயட": 9236,
      "இனயம": 9237,
      "இனபம": 9238,
      "இனஃப": 9239,
      "இனஃபசஸ": 9240,
      "ககரஸ": 9241,
      "தவரவதம": 9242,
      "தவரககறர": 9243,
      "தவரஙகளலரநத": 9244,
      "வடயறகல": 9245,
      "அளவடம": 9246,
      "அளககபபடவலல": 9247,
      "அளககமற": 9248,
      "தரமம": 9249,
      "ளளனவ": 9250,
      "சதயர": 9251,
      "அலத": 9252,
      "அலன": 9253,
      "அலகர": 9254,
      "அலகஸ": 9255,
      "அலஙகரம": 9256,
      "ஒனறய": 9257,
      "வதமம": 9258,
      "உலகததடன": 9259,
      "கரணமம": 9260,
      "மரததன": 9261,
      "மரததலரநத": 9262,
      "பரதஷ": 9263,
      "வழககயலம": 9264,
      "வணல": 9265,
      "வணவ": 9266,
      "மகமடட": 9267,
      "மகமடடமக": 9268,
      "பரமயம": 9269,
      "பரமபபடதத": 9270,
      "பகதகளககம": 9271,
      "பகதயயம": 9272,
      "பகதயலம": 9273,
      "பகதகளகப": 9274,
      "சமபதததளளத": 9275,
      "வஙகதல": 9276,
      "வஙகபபடடன": 9277,
      "வஙகயளளர": 9278,
      "பபடததபபடடளளத": 9279,
      "தயவழ": 9280,
      "ஹரர": 9281,
      "ஹரஜய": 9282,
      "ஹரதப": 9283,
      "பரடச": 9284,
      "பரடகளககன": 9285,
      "வளயடககட": 9286,
      "வளயடபபடடளளன": 9287,
      "வளயடவதயம": 9288,
      "எணகணம": 9289,
      "வககசசவட": 9290,
      "தயரககலம": 9291,
      "தயரகயவடன": 9292,
      "பதயய": 9293,
      "பளளகளம": 9294,
      "பகரட": 9295,
      "பகரலம": 9296,
      "பகரதரர": 9297,
      "அனமல": 9298,
      "ககனதபப": 9299,
      "இடமள": 9300,
      "இடமழககம": 9301,
      "அனமதககபபடடளளர": 9302,
      "நளலரநத": 9303,
      "தழதத": 9304,
      "இணககம": 9305,
      "அறவசர": 9306,
      "அறவககம": 9307,
      "அறவபபம": 9308,
      "அறவததரநதர": 9309,
      "மடடய": 9310,
      "மடடல": 9311,
      "வரலட": 9312,
      "வரலகன": 9313,
      "வரலஜஸட": 9314,
      "எஸஏட": 9315,
      "எஸஏஐ": 9316,
      "எஸஎஸச": 9317,
      "பழட": 9318,
      "சறறபபத": 9319,
      "வடககககக": 9320,
      "வடககயகத": 9321,
      "தணடககவலல": 9322,
      "தணடகளலரநத": 9323,
      "தணடயதக": 9324,
      "நபரல": 9325,
      "நபரகளககம": 9326,
      "ததறகச": 9327,
      "பதவயல": 9328,
      "ஸடவன": 9329,
      "தககய": 9330,
      "தககமனம": 9331,
      "தககயதக": 9332,
      "கடமபஙகளலரநத": 9333,
      "ஒரவரன": 9334,
      "பமபல": 9335,
      "எலக": 9336,
      "எலபஜ": 9337,
      "நடதததல": 9338,
      "நடததவதக": 9339,
      "நடததபபடவலல": 9340,
      "அதனபட": 9341,
      "நகரல": 9342,
      "நகரகறர": 9343,
      "நகரததலம": 9344,
      "நகரடசயம": 9345,
      "நகரகமன": 9346,
      "எழதபபடடரககம": 9347,
      "தலவரன": 9348,
      "தலவரமன": 9349,
      "பளயட": 9350,
      "பளஸடர": 9351,
      "பளஆஃப": 9352,
      "வசரககபபட": 9353,
      "தளவம": 9354,
      "தளககவம": 9355,
      "கடசபபடதபட": 9356,
      "தணணரம": 9357,
      "தணணரககக": 9358,
      "சடக": 9359,
      "சடகக": 9360,
      "சடபடதத": 9361,
      "சடபபடடத": 9362,
      "வளவநதளளன": 9363,
      "இயககபபட": 9364,
      "மனனட": 9365,
      "மனனபபதம": 9366,
      "பலரப": 9367,
      "சமகமம": 9368,
      "ஜரத": 9369,
      "ஜரர": 9370,
      "ஜரனல": 9371,
      "ஃபஷ": 9372,
      "கவடபபட": 9373,
      "மநலமம": 9374,
      "பரநதவலல": 9375,
      "பரநதணர": 9376,
      "சடடக": 9377,
      "சடடமனறம": 9378,
      "ஏறபடகளம": 9379,
      "எணணபபட": 9380,
      "எணணககயயம": 9381,
      "கணடபடககபபடடதக": 9382,
      "கணடபடககபபடடதல": 9383,
      "கரனவர": 9384,
      "மயறசத": 9385,
      "தடரபகள": 9386,
      "தடரபகளள": 9387,
      "நகழவன": 9388,
      "நகழசசய": 9389,
      "நகழவகம": 9390,
      "நகழசசயம": 9391,
      "வரவககம": 9392,
      "வரவதலல": 9393,
      "வளரக": 9394,
      "மயறசககறர": 9395,
      "சசனனம": 9396,
      "ரஜத": 9397,
      "ரஜகர": 9398,
      "ரஜவட": 9399,
      "ரஜநதர": 9400,
      "ரஜநதரன": 9401,
      "பரளதரத": 9402,
      "ரமகரஷண": 9403,
      "பஙகவ": 9404,
      "பஙகறகவலல": 9405,
      "உததரவதம": 9406,
      "பனறர": 9407,
      "பககஜ": 9408,
      "பககல": 9409,
      "பககஜங": 9410,
      "பககஙகளலரநதம": 9411,
      "தஙகமட": 9412,
      "தஙகயரநதனர": 9413,
      "நறததவதறகன": 9414,
      "அமரககவடன": 9415,
      "அமரககவலம": 9416,
      "அஙகல": 9417,
      "தவறழ": 9418,
      "தவறவடட": 9419,
      "தவறதலக": 9420,
      "ஆதரககம": 9421,
      "ஆதரததயம": 9422,
      "கடடபபடகளயம": 9423,
      "ரபயககம": 9424,
      "கரததபபட": 9425,
      "கரததகளயம": 9426,
      "கரததகளல": 9427,
      "சதனய": 9428,
      "சதனவ": 9429,
      "ரஷட": 9430,
      "பரசசனகளயம": 9431,
      "நமபவ": 9432,
      "மனதப": 9433,
      "மஸல": 9434,
      "மஸகவ": 9435,
      "நடபறவளள": 9436,
      "அமசசரகளம": 9437,
      "ஆலக": 9438,
      "ஆலரவணடர": 9439,
      "அறககககக": 9440,
      "பரபபய": 9441,
      "பரபபல": 9442,
      "பரபபவர": 9443,
      "பரபபதல": 9444,
      "இழபபர": 9445,
      "சமரன": 9446,
      "சமரசம": 9447,
      "மரநதகம": 9448,
      "பயணகளககக": 9449,
      "மணவரகளடன": 9450,
      "பகஸதனடன": 9451,
      "சபபடகறர": 9452,
      "சபபடவதயம": 9453,
      "பஜஜயம": 9454,
      "எதயம": 9455,
      "வலஙகனம": 9456,
      "196": 9457,
      "சததமகவம": 9458,
      "சதததடடம": 9459,
      "தபபனர": 9460,
      "சலததவம": 9461,
      "சலததபபடட": 9462,
      "சலததவலல": 9463,
      "ககயளளனர": 9464,
      "நரபபல": 9465,
      "நரபபசன": 9466,
      "பனபறறமப": 9467,
      "பஸத": 9468,
      "பஸவ": 9469,
      "பஸடட": 9470,
      "பஸயன": 9471,
      "தடடவம": 9472,
      "தடடனர": 9473,
      "தடடததயம": 9474,
      "சயயபபடடவ": 9475,
      "பசசட": 9476,
      "பசசககரன": 9477,
      "தழலநட": 9478,
      "வகபபநத": 9479,
      "ஏறபடததவதறகக": 9480,
      "ஏறபடததயளளன": 9481,
      "உடனபடட": 9482,
      "உடனபறபப": 9483,
      "உடனபடகக": 9484,
      "அனபபமற": 9485,
      "அனபபயளளர": 9486,
      "அனபபயரநதர": 9487,
      "அழககபபடகறள": 9488,
      "உறதபபட": 9489,
      "உறதமழ": 9490,
      "மதததலரநத": 9491,
      "மதததறகன": 9492,
      "அளவலம": 9493,
      "கததவ": 9494,
      "கததவம": 9495,
      "கதததல": 9496,
      "கததபபடட": 9497,
      "கததபவர": 9498,
      "கததசசணட": 9499,
      "ரனவ": 9500,
      "லயடன": 9501,
      "தகவலற": 9502,
      "தகவலதடர": 9503,
      "அமதயகவம": 9504,
      "மகனன": 9505,
      "மகனஸ": 9506,
[...]
